// biases, INT32 in LSBs, zero-extended
fffffffffffffffffffffffffffffca6
0000000000000000000000000000004f
ffffffffffffffffffffffffffffff1f
fffffffffffffffffffffffffffffc09
00000000000000000000000000000115
00000000000000000000000000000126
000000000000000000000000000001bb
00000000000000000000000000000221
ffffffffffffffffffffffffffffff9b
ffffffffffffffffffffffffffffff44
fffffffffffffffffffffffffffffe39
ffffffffffffffffffffffffffffffa9
ffffffffffffffffffffffffffffff42
00000000000000000000000000000024
fffffffffffffffffffffffffffffdec
fffffffffffffffffffffffffffffdb8
fffffffffffffffffffffffffffffbfc
fffffffffffffffffffffffffffffff8
fffffffffffffffffffffffffffffe9d
fffffffffffffffffffffffffffffe1c
ffffffffffffffffffffffffffffff2f
fffffffffffffffffffffffffffffeb6
fffffffffffffffffffffffffffffed4
00000000000000000000000000000089
00000000000000000000000000000011
fffffffffffffffffffffffffffffc61
00000000000000000000000000000215
ffffffffffffffffffffffffffffff59
0000000000000000000000000000023a
fffffffffffffffffffffffffffffea0
fffffffffffffffffffffffffffffe73
fffffffffffffffffffffffffffffd91
ffffffffffffffffffffffffffffffba
ffffffffffffffffffffffffffffff5b
00000000000000000000000000000102
000000000000000000000000000000ea
ffffffffffffffffffffffffffffffc0
fffffffffffffffffffffffffffffd16
fffffffffffffffffffffffffffffe85
fffffffffffffffffffffffffffffda2
fffffffffffffffffffffffffffffd9f
00000000000000000000000000000048
ffffffffffffffffffffffffffffffca
ffffffffffffffffffffffffffffff40
fffffffffffffffffffffffffffffddf
fffffffffffffffffffffffffffffeab
fffffffffffffffffffffffffffffd8d
fffffffffffffffffffffffffffffdb9
fffffffffffffffffffffffffffffde6
00000000000000000000000000000340
ffffffffffffffffffffffffffffff54
fffffffffffffffffffffffffffffe57
fffffffffffffffffffffffffffffd5e
ffffffffffffffffffffffffffffffd7
00000000000000000000000000000016
000000000000000000000000000000b6
fffffffffffffffffffffffffffffefd
ffffffffffffffffffffffffffffff26
fffffffffffffffffffffffffffffdfe
ffffffffffffffffffffffffffffff19
000000000000000000000000000000f5
fffffffffffffffffffffffffffffda1
fffffffffffffffffffffffffffffd70
ffffffffffffffffffffffffffffffd4
fffffffffffffffffffffffffffffc2b
ffffffffffffffffffffffffffffff70
00000000000000000000000000000146
fffffffffffffffffffffffffffffea1
000000000000000000000000000001cc
ffffffffffffffffffffffffffffff6a
000000000000000000000000000000dd
fffffffffffffffffffffffffffffda9
000000000000000000000000000000db
fffffffffffffffffffffffffffffedc
00000000000000000000000000000050
fffffffffffffffffffffffffffffe66
000000000000000000000000000000eb
ffffffffffffffffffffffffffffffb4
ffffffffffffffffffffffffffffffce
ffffffffffffffffffffffffffffff21
00000000000000000000000000000048
fffffffffffffffffffffffffffffd71
fffffffffffffffffffffffffffffefc
0000000000000000000000000000013e
fffffffffffffffffffffffffffffff0
fffffffffffffffffffffffffffffd96
fffffffffffffffffffffffffffffe88
00000000000000000000000000000204
000000000000000000000000000001d9
fffffffffffffffffffffffffffffec7
ffffffffffffffffffffffffffffffd8
00000000000000000000000000000048
00000000000000000000000000000013
0000000000000000000000000000018f
ffffffffffffffffffffffffffffff29
fffffffffffffffffffffffffffffe21
00000000000000000000000000000014
fffffffffffffffffffffffffffffec8
ffffffffffffffffffffffffffffff54
ffffffffffffffffffffffffffffffa9
fffffffffffffffffffffffffffffdef
00000000000000000000000000000178
ffffffffffffffffffffffffffffff17
fffffffffffffffffffffffffffffe86
fffffffffffffffffffffffffffffd71
fffffffffffffffffffffffffffffd51
fffffffffffffffffffffffffffffcb3
fffffffffffffffffffffffffffffeae
000000000000000000000000000000f8
0000000000000000000000000000014f
fffffffffffffffffffffffffffffe38
00000000000000000000000000000058
00000000000000000000000000000053
000000000000000000000000000001db
00000000000000000000000000000142
00000000000000000000000000000003
fffffffffffffffffffffffffffffd43
fffffffffffffffffffffffffffffdce
000000000000000000000000000001f9
ffffffffffffffffffffffffffffff47
0000000000000000000000000000007a
fffffffffffffffffffffffffffffd6a
ffffffffffffffffffffffffffffff8b
000000000000000000000000000001dc
ffffffffffffffffffffffffffffff6e
0000000000000000000000000000002d
ffffffffffffffffffffffffffffff8e
00000000000000000000000000000236
000000000000000000000000000001b3
0000000000000000000000000000015f
00000000000000000000000000000003
0000000000000000000000000000003d
0000000000000000000000000000016d
ffffffffffffffffffffffffffffffa2
00000000000000000000000000000183
ffffffffffffffffffffffffffffffc4
000000000000000000000000000000d6
fffffffffffffffffffffffffffffef3
00000000000000000000000000000074
000000000000000000000000000000cc
0000000000000000000000000000001c
00000000000000000000000000000089
ffffffffffffffffffffffffffffff60
000000000000000000000000000000a8
00000000000000000000000000000063
0000000000000000000000000000005c
00000000000000000000000000000045
fffffffffffffffffffffffffffffffd
000000000000000000000000000000f5
fffffffffffffffffffffffffffffef3
ffffffffffffffffffffffffffffff60
ffffffffffffffffffffffffffffffb6
ffffffffffffffffffffffffffffff65
ffffffffffffffffffffffffffffffc9
0000000000000000000000000000003c
ffffffffffffffffffffffffffffffc1
0000000000000000000000000000005a
000000000000000000000000000000b5
00000000000000000000000000000014
0000000000000000000000000000014c
00000000000000000000000000000078
ffffffffffffffffffffffffffffff35
000000000000000000000000000000c5
fffffffffffffffffffffffffffffffb
ffffffffffffffffffffffffffffff4d
00000000000000000000000000000089
00000000000000000000000000000003
ffffffffffffffffffffffffffffffab
000000000000000000000000000000eb
fffffffffffffffffffffffffffffff4
ffffffffffffffffffffffffffffff97
000000000000000000000000000001d8
0000000000000000000000000000003e
00000000000000000000000000000020
ffffffffffffffffffffffffffffff7f
000000000000000000000000000000ca
00000000000000000000000000000092
ffffffffffffffffffffffffffffff78
fffffffffffffffffffffffffffffffb
ffffffffffffffffffffffffffffff5e
fffffffffffffffffffffffffffffffb
ffffffffffffffffffffffffffffff27
000000000000000000000000000000a7
00000000000000000000000000000170
0000000000000000000000000000006c
00000000000000000000000000000101
0000000000000000000000000000017b
00000000000000000000000000000049
00000000000000000000000000000076
00000000000000000000000000000096
0000000000000000000000000000018e
00000000000000000000000000000069
000000000000000000000000000000c5
ffffffffffffffffffffffffffffffa3
ffffffffffffffffffffffffffffff77
00000000000000000000000000000054
fffffffffffffffffffffffffffffff4
ffffffffffffffffffffffffffffff5d
0000000000000000000000000000009c
fffffffffffffffffffffffffffffe77
00000000000000000000000000000104
000000000000000000000000000000a4
