// packed weights, 16 INT8 per word
fe03090e1304000204f4f4041402f708
080f0c0e080f00010004f9010503f80e
0e130afc11040201f6f905ff1002faff
fe06ff0704fd0102f9f2f7040c02f200
fc11feff05ff0101fefa06fc1503fd04
08040bff0d04ff02f301f90c1102fe0b
fd09fdfe01120002fdf1ff0b0e02fc07
07190305020f020200fbfe070802ff0f
0812fb13071500020700fdfe04030403
091cff0e0613ff02faf705f80501feff
0113fd02040cff0208fc07ff1002f7f4
0721070b01030002fff5f711fe01f5f5
fb19fb1106feff02f7f304fc0002f2f2
031ffb120a0101010b0301fe0803f1f6
f8290418fafc00020cf3fe0c0102f9f5
f720010906060202fafbf60d0803f8fe
fe24050904ffff02fbff02fb0e02fa02
0516fb100a06010105f506f90702f405
0613fe0f0d0b0201f901f605000202f9
09180a030416020106f3f5010503f1fa
02110801020f0002fb06f4101103f9fe
0705f90601100203fc0000080702040a
0c05fa0e04000002fafafbf908030501
fd12050103fd000207f3faf71303f60e
0310f90406060202f9fc07091002fe06
0b06fc0a0f0c0101fbfffbff0502fe09
0312fbfd0c0e000204f6f7fc1803f812
0e10f902040b0102f6faff051502f9fe
0a0ffc070f0f0202fdf1f8ff19020001
000b09010a010102f5f1fb061402f506
0d10f70e09090102f3fa03040b03ff04
010809040d100102fa0500fd0c020112
0b02f80b03010001fefbf6f91302f801
0b0cff060711010207ff070805030603
0914fe070f030002f3f704fc0503fbfe
0a0e09140b15ff02fbf8f601f20201f7
001ef8020a12ff0103fb0207fa0204f7
f428fb030017000304f601020401f6fa
0228f607010901010800f617fe01fef1
f72bfc1006010002fafef50cf700f2f4
ed2a040cfef4fd0200eff515f301eef5
f22a080dfdfe010208fd05140103f6e9
ee250802faed070200f60312f902fff1
f629030efbe608ff0df506ffef03fbe1
e8190207fbeb05fffdfafd0705fffbe7
fb1e0b11f30007000bf7090f0200f7ef
ef150d11f503020004f503fdf800fffd
fa181006f50b01fffefdf60ff703fa03
060d0a01091503010502f9110703fff7
fd08fffffe12010108fa04140602f7ff
0912f801fe0702ff05fb02000402f70a
0d00fcf80704010103fcfd001102030e
020b0afb05070001f5f7f7fb0b02ff0c
0503fb050c0401020001f8fe1002fa09
fd12fafd060e0202050607040902fa10
0212fb0811010002fffbf8f706030002
0905fffffe11020204fc05090803fb0a
0209070cfe070101f604fa080e030400
0d0a090c120e02010504fe050703fd00
0a010a0f030d0101fdf4f40919030103
0b1508ff0b020102f4f7faff0b03010d
0a1407070b15fe02fcf10607fa03fa09
03120212070a01020902f508fc02fff9
011afa06fc07ff02fe040400ef0201ff
f918fb060118020105f7f508f203fbf8
02170003f41b030005fefe0ef601fee3
fb1703fc0402050200f9f30ee7ffffe4
e609f3f7fcf203000be9f202f5ff0de8
f3fef1fefbf3050013f6f704ef0206ef
f306f7fff5d405010bf6f9ffe60207f3
f809f6fbf0d60aff0feef9fee0010de3
e509fcfbecce0ffd12f4eff5f30109e8
e5f708fcf0cd0afd04f8f8faf70012ee
f7fafbffeef00ffffdfef6fdeeff11f5
f101041102f907010702fb08eb0315f8
03fb0007f90f0701fcfd020ced030402
04f703f6071601030b000309f5041304
f40100ef0214fe0105f9fb06fa0310fa
020a05f1070afcfffe02fdfafe020406
01ff060309000100fef807040603fffa
fa0a040a0507fe0008f10304090209f8
fe120a03040eff010700fc041202f90e
101305030c010002020006081803fd10
0d10fffefd10020202fef5071703f8fd
010d0a05080d0102f80006fb1902fb0a
0813020c0706010201fd03090b02ff06
0215070b00070202f6fff6090b03fe06
0502fe010a1201010200f4030b03fb02
0215fb010a0e0202f8f505fa0703f40b
0418fa07fc17ff0200fc08fff702fdfa
f915fe07101500030d00ff0deb03fb02
0312030c0b19fd020efcfa0de203fe01
f31500050814010016ee0717df010bfb
f910f702f21803ff0df40114ed000aee
e2fef4faf10e04fe07f4fb0adcfdf8eb
e9fbe8f2f8e700ff0fe90408de000cf1
f4f3ebfcecccffff17f5fe0ad9ff0ff5
e1f7f406dccd01fb14ebf6f4dd000cf4
eef4edfde1c504fa12f1f1fce60009e8
edefee08ebde08fa0fe8deefec0215eb
e8fcf500f5de08f913ebdff8da0613f7
dff904ffec0110fc12f3e306db0216fa
e3f502f0dd010a0010f8e204f0041ef8
f3fc0609ea04080001faea06e3040a02
e6f90af6e7070400080aff0ce10314f8
f40101eefc0d020012f30005ef021f04
07080af8ed0dfeff0bf1ee06fa0103f8
fffc0afb020b01fffff6fc09f80109f7
fb0813f905feffff0301fa060103fc01
020b0dff0502ff0104f5f6f906020608
0809fefb03040102f306fefc1202fd01
01120b010e0001020401fb090802030e
0014fb030209ff01f7faf8001602f301
fe070a0604100001f602f4091203fc11
0d110603120e0002f90106090c02010f
0b17070e02080002fbf6f5fe070201ff
f80c0c0908190202fffbfefdf3020805
05130900101a0103070604fbf1020505
0517fb040124fe020502f707e702fe0d
f30afffb0a12fb02fffaf401db02ff10
f6fef3050526f90104f1f004d302010e
dcf4ddf5020300faf5f6f6fbd8fdf108
f500e6fc0ce5fffbfaf6ee01dbfaf003
ebe9e1ff09c105fc00f0f006d2fcff17
e9fed10bfbad02fe08e6f10ddeff07fd
f1ecddfd03a802fc04e7ebfcd1fd0802
e9e0df0413c8fdf60ff5f7f4cc010e00
f2faeaf90ce401fbfdfae7ecd70306f7
d7fbf0fe18f307fb00f6e001d30507fe
dbf3fbf5060e09fb0befe209dc070c00
eefcf9f0fdfd10fcfcf4eeffe0020d00
faf907ec09f808fb0106e5fddf05090f
f0f80bed00fe03fc03fdf602db010101
040015f2ec0c03010ff5f60ce8ff0006
010007eef3fcfd0312fe04fbf9ff1007
fbf90d04f9eaff000300f202f8000dff
0d0311f804fa01020ceaf500f1010303
0b0e0b070800ff03fdeffbfaff02f507
fc0c09040d0d000307f9f8faff03f809
fe0efaff020c0202080703fa1002050e
0404000f0b0b0002f4f6fafd14020412
fc0504091204010201fd01021a03f310
fa0f0b05ff110202060602fa01010014
021308110e17000208fc03000001f40b
fd0a06fc0a1102030903fdfff70204fe
00ff0a0c0924010203f40207ed02fe03
ef0109f61621fc03fe03fcf9db04001d
f1fdf4fd0227fb02fa0df704e904f014
e4f0f2fc0424f803eb03f8f3deffee13
effed7ed0001fe00f703eefdd8fcfc0f
e503ddf417cb04fcfcfaec0ed3ff000e
f0fcd00607a605fdfbf3ef07e6fc0105
0102dd041d9500f902f2f20edd01030c
02f2ce050ba1fefb03f8e3fae1fdfa0e
fcf9e00b1bd5f8ff06f3ea08dffa0d07
eaedd1fc11f002ff02eae508e4fd00fb
e2f6e1f9201402fff6f7eff9d1ff0e15
ddf6e9fe0fff05010a06f408e5ff0500
e5f6f4eb12050403090dfb12e003ff03
e0fdfcf511ee03fe06fffe08e3fd0300
e9f5f9f50010fffdf9f9f2fcf3fe0408
fdedf6e9020afe01f7fdfa0cf5fd0b06
060000f6fef5f90107f9fafaf2fcfaf9
0a041002f401f60302020308fc0002f6
fcfe04fff4f8fa030b040505fa020b03
040903f7fdf5ff0309ff0706f302fe06
161204fa0306fe02020508fd0503fffe
0804fb070104ff03fd0303fa0702fe08
fd0001030f0901010303f6020d03f4fe
06150b01031000020404f50a1102f407
0815fb110dfe0203fa08fefb00020311
04130f02111b0003f70bf405f5010108
050b11f603170203f9120408f302fc11
fc051302041ffe0407000602d903f80d
fbf6f9f6062bfa03f2000aeef3030407
eb02f5f90e24fc0002fffefbe4010412
f3f3f3fd1418fffff5010bfce300fa11
eafed7ef00f10003effafc0ae4f9040c
ed00e6ef09c502fefcfaf3fff4fd0914
fd08e2ed13a3f7f9fbececfce800effe
00f4e2f910a5faf9ff01ec05f300ed03
02faea0c10bef3040706ed06f7fefc03
fb01f10813e90107fdf7f80c00fd0b0f
f4f8ed00150d04fefd08eefdeb03ff05
df08f2f21a1d01fb0805fa10ef030a0b
e6fafaf5200c05f70810f9fffdfc160c
e8fa01f00f080701fffcf214f1fe1106
f1f70cf1130405fbf703fe08e9000a04
ebe8f9ed0c08fa01fffefb00e3ff1fff
fce4f8f206fdf802fd0ff8fde8ff1c13
05e5fff7f303f705f705f505effe0214
06fe07fcf801f601fe12f3f5f7010809
09fd0708eb03f803f908fdfdf70213f8
15001203fc03fc030afe10fff6031806
0a000e01fd0e000103fb0605020201f8
0100080cfc0cfe01fef703060f020dfe
0d06fc0801fc0201ff02f9020a03fa02
fa1401090cfb030301fa05f90e02f20a
0e0e0d0a130701020406fbfa0401feff
fd180e0210160204f908f804fc02f602
fd0b1dfb0e14fe020005050ae80204ff
fafb0de7021bfd02050b0ef3f001040c
e6f710f01c12fe010108fef9f80405ff
ec0002e81025fafff3060feffafe07f8
e6f6fbed0220f7fcf0040000eb00fffb
edfcffedfbfffbfcfa0b00f2f3000a08
ed08f4f2feb0f6f9f008f8f7f00002ff
ff0b07e6feacf2fb09fe06ebee07050d
ef06f1fc06a6f6fb0300fdeff202fc0b
f6fbf90310d001010102f601f300f809
f2f8fb031b160600fbf7f7060405030a
dffe0bfe112909f904f4f705fb080406
d3f807e0111f0afb01faeffbf9070e04
defcffef130f05f5f7ecec02f6001203
e1f6fce10c0402f8ff050003e7fd1906
f9f40fe60c04f9fe03040801f2fb1409
fded0aee120df6fcf906faf0fa0413fd
f8ea07f402fff5fffdfb0afaedff1106
01ed02fafe04f502000907fafcfc1307
13f00804f5f6f902f40b00f604fc07f2
20f40cfff9fdfcfdf61102f108001805
1d0208fce70bfd02f3070aff04041911
13fd140d0010ff02020a0af806020a07
1407010d0c0d0001fef4f5000903fd07
0816fd0cff0d0001ff01f9fa0603faff
ff150a130b01ff01040706fa1103fa0d
02150b1006130102fc0af8fd0703fdfa
030a0f080c14fe0201010102f4fffff8
020b08040d12fd01fb110afff00109f5
ee0719ee021efb010a16faf701030402
f10e17f10617fd00f41407edf8060d05
ef020ef2f818fafa04fa14ecff021403
f6ff06f20722eefcfd0908f6f70209ff
ee080bebfd01f1fef60805eef4040305
f3080ff802b0f3fcf70e06f7f9fffb09
fe080fe314a3fdfbfc0d07e5f503fe03
000512f405ae03f9f307fcf0edfdfe10
fa000f0d0bf20af9fd0300f2fa02f006
f40819031b1d0df3fa0d08f6fcfdee0b
d90809eb072610fa010904f7f6f8ff09
f00819ed14100ff30001faf9e9f40307
e2fe1acd1602fffffdfe0302e7fdfc0e
fdf408e61dfbfbff0003fcf3e9f70901
06fc04e40bfafbf8faf200f2fefc1c00
0eef120206fbf6f8fafa09f40003190f
16fc0aff11fff500faf612f8f70125f7
1af9fe00fef9f2fbfa0305f6f8fd2200
1af30b03e4e5fdfdfd0300ec02021bf5
110106f7dfeefafdf909f8e906032008
29061509eafaffff060cfef4fa011901
18001707fe16feff03030cfafd011403
190c0c0a0d0dff01fafdfafdff020608
fb0c040e0e12010102f405070e02f511
f70e01110f14ff0203fc050a1102fb02
051010f709060202fb1300fb0a01f3fc
ed050a0000190003ff06fffdf80104ff
fd0b12fc020d0001010afaeff9fff8f0
000424fd0c09ff01020a07f6f1fe0f0a
fafb13f7081dfc0106fd0cf9fafefcfe
f70611f50313f7fdf9fb03ee0301f8f5
00091dfe0319f4fe0613fcecf1fdfffb
0afd29ea0ceefdf4030a06e7f3ff0402
f0032cdcfeb4fef5f207f6e3ebfb0a05
f8012ddbefa300f9021203efe7fb060c
f10627fae4d107fdf815fbf1effbf410
ea0834fde7f40efa0611fbebe6f90802
e8042bf1f71c14f4010f0aeefff8f20b
e10529eb11290dfef50201ec01f2eb10
f5fc0fd31e0409fefb141bf5e9f9f90a
f4051bd4100ef8f6fef207f5ef000500
fbfb09eb1802f1f7ff050ee70201fef4
060312f613f4fafff6fc01f8030309fd
07fb18f812f2f2fff300fdeef6fb23f9
1df509f416e6f4fcf80e13ecf0f71c0b
0ef803f9f3faf3ffe9fbfff405fb1ef5
13ff0ef6e2faf705f806fef0f00011f5
160002f8e2f1f902040ff7e9edfe1907
250012f4e801fe03f90c06f6fafb2af0
16051307ff06fdff0a050cecfc0115fd
210010fcff040101ff0cf8ff06030c07
000d04fd00110001f90808080703f807
fc13050601010101fdf8fef91402f8fb
ee0611fb17080002ff0df8f70c02fdf6
f71214f1030000010700fc0308fffb0b
fb1011eff0f9fe02f9feebf4fc0105fc
fef526ecf609000408f0f2ef08fe0208
09f91bebf205fe02fa06fdf805fdfa01
030224ed0017fbf9f6f8f6effa00fb03
fefc15e7f71900f9fe07f2f7fa03f805
ff0223e7f8f108f8f20effe6f6fff10a
faf824e3ebc307f9fe0aebe6f8fc0ffc
02043ee3e1bf06f9fb11f1f9f301fc08
fa0236f8e8ec0df4020bf1f9fdfe030b
f1fd32ecda1312f00009ec0006040507
e4fc1ff3031210f8000efaf40100040c
f00d0de5101c04f9fa0501fcf9fff4ff
eb080fda190801f4fa1101edf6f6f008
00f7fedd1d0efdfd01fc10f400faeff8
fc0c0cf419eff4f903fe15ed05020802
16fc09ed13f6f6fff80015f503030301
11ff0bee16eaf205f9fc0cf408011afb
0bfef2f903ebf502ef0313ddeefa1908
1101ff0000faf703fc0301e301010bfc
13f0f9f5eef8f900f4fd07d5f1000efd
1809fffde4ecf806edfc0ae9edfe14f5
1f0b0f01f0fffc03040e10f5eb0114f0
21fa04f6fc0afe04ff100cecf8010b00
1401fe04fa0b0003fe1208f212020808
0c020cfd02010001fefef8030703f90a
0401fa00010b0002fbf9fe0618020602
faff0df418050102070ef3051902fff5
eb0911f6f606ff0100f4effa0b0206fa
f90009f1f60c0102ffe6f1f30804fdfb
020505effc0a0202fdfcf4fe0afde704
01f00ee6f113fefe0101e5ef04fdf117
fbf612dff10ffdfbf4e5e2edfdfbf410
fff908e7fa0e03f7fa01e5effc02ed06
fbf50ceae3eb0bfc05fbf2f303fef510
0f000ce4dacd0001f3f7e6fd04011112
090400e5e5de01f60202de04fdfa1e0b
f00f02e8ebec12f70202dcfa05021709
e003edf5f60809fc0afceefc07ff2209
ebfef1f5091009fdf504f6f1fd0109fd
e309f9e2131afdf8fdf90aeb0002fc03
f5f9e9e31710fbfbf30100e10401fd0b
fa00eaeb12fff6f6feff01e70c02fb06
090aeffc17fa050402fa08ef09fcff04
11f8f1fd07e8fd00f2fa1ce812fff405
1900fb060bf4f40af4fb1aebfaf50307
08fdf4fb0be9fc03fc041cdff1f90c01
0e0afcf5fbf60105f1f714daeb06f200
26feebe7e4e8fc07ecf509d3f801fbe8
21fdfbf2f1f4fd05fef9f7e0e9fe0dfa
070800f3ecec000806fffef2f0fe08fe
0f050a03faf40003010702ebf30200fb
180d0101fd000202f813fdf80802fd08
0106fcfb0a070002f2f707fe1303fc0e
0aff0b0c020f020202faf9fb0d02f40e
f50103f1120a02020006fcfc1e01fb0d
ff05fae2f9fb0003f7f2f3f91103080d
f806f5e4f9030304f1f5e0fb0201f9fe
f7f6fce202ff0302fcebe3ee0300f508
ff09f0dcfc0100fd03fcf30505fdeb1b
0bfbf8e2f40dfff50af0e910fa00ee13
0510ebf6f50206f2fdedde0a0709f6ff
0208e5eff2f402f403f1e7fcfb03ea13
1b05dffdf6e501f5fce7dc080602f60b
010dd6ebf3f9fef80305e4f30d041a06
011acbfaf1010800fefce80d16fe25f1
e910cff610100cfdfbeff0f015fd30ff
d600cdf40511fcf70500feeb0cfc22fd
ee00ddea2009fcfdfbff05e0f6fc130f
f7ffe0f8120bf501f7f6efdffcfa0201
f7fde7e914fbfc06f301f7ee1100fe04
f107e9fb03f60503f30bfcf00c03060d
f714edf709e5fc08020414f81402ef10
0104eef409ebf70701010dfd0ffef101
0211e7f6fce601fcf5f80af3f904fd10
0c03edf401f20803f1f71be4e405ef00
0cfefdf1e7f00406f0f20adbec00f500
fb05f1dee3e1fc0afef9fcdff2fd0af6
05ff07eeecee020a060007f7f6fd01f4
0cfe05f0ffee0104081201eef1010bfa
0f0804fc0e030102fb0600f6fb02f50e
06050b02fffb0102fdff02060a03020d
fa0df8080eff020204fbfafe0703f50e
0406f9fa0d000403f6fdfefd0f020a0d
f4f7dff6f7020103fafff2f90b0301ff
f806d6dfff0c0102eff1e4f30005ff05
f306c9e4fbfffd00f9fbef060c010011
fc0bdfe0f800fcf904f5fa02f500050c
08ffdbf9f205fcfb05f0e70f04fcf516
11fccc09fb0603fe02f6e8050306ecff
1a05d9fceaf601f60af2ec060805f900
0b10cafeffedfc020600e8fe02faf4fb
2010cafefdfd02050ffae60203f70cfa
0208cd070905fffa0706e9fb00f50e0a
ee1ad0040e0a03f904f3fcf609fa1a0e
ec17e2f7080dfd00f6f4fcf7f5f81c0a
e305f2ff0806fa00f9eff3f6e6fe1f0d
eb08f8f50afcf7fdf5faecef0e000b11
ea0ff7ef0af6f506f6f1e2f70fffef09
e10200f80007040101f0f5fe0701fd19
e401efe80df0fc08f4ed0a0307fef41c
e612f6faf7ec0408f7ec0b0c06feeb12
e010f9f3f0f50bfdf8e70303edfee914
de06f3e7f8f90402e4e80deafb02f10f
e1fdeeede8f40703ede505e901fefa0a
ef0400e2f5ed0205f2ff09ea01fcfa01
f30df2f2f9eafe05fe0bf6faecff0007
041efb0ef7fbff03fc0906fbfa0201ff
0917fbfd070b010203050407fb03fc04
f915040012f90101fbfcf60213030102
0411000a0e030002f9fdfff90f02ff00
f604e1f911f70003f60803fe110103fb
010dd3f603fc0202f70dfffb0a040a0e
070bc2f1fef5fefff2faf8fd0b050b09
fc10c2fbf801fafef1f4f506ff06fd11
fe04b9f9f507fefc0204edfff4010a0e
090ec30ffb10fdfdfff8fdf2f7fdf81c
0303c70f0305fcf6f6f0f2f1fd01f41b
0d09cf040203fe01fd05fe0501f9ee11
110fcc1d06f9fd020003f6fafbf5ee0a
210adf180c03fa02fffef6f816f50714
19feef0a0f01fffc01f9fff901fa1e10
0612f0161004fdf903000107fef30dff
e70e00020f06fdf4f7fdfafee5f71c13
e31afd110702f5ff00efdcffeff71711
e216f80003f100f705f8daf406010809
f40df3fc0bfcfef7f0fbdcfa0107071d
ec14fdedfefafe03eff9fdfe16fffe0d
f60cfaf8faf70307f8df050f0bfbf411
e109fceef1ff0500f8edf50c0df5fd19
c90a01f0f10303fcfbea0007faf5f716
d20af3edeffffffeffe9100600ff05ff
db1901e8f5fc0201efe50cf40cfff703
e50a00fceae4fc00f7eef6f709000b02
da1d06faeaf7fe000bf50ef6000112fb
ed1b0a0cfa07fe03fb03fff5fb030a00
09030d0b05020001fc04f4fe0d02f20d
0306070c1003020202fa000b0903f709
0413fcf90cfcff01f7f604fb1303fdff
fc0be8000302ff02f20a08fd0a0103ff
0e07c705ee070202f401f9fa13031bfc
0f15c70be5fbfe00ef05f90311041300
f620bd0fe70602ffec0cfaf0ff0606fb
fe04c606e210fffbf70405eff4ff0409
fb03d613e612fafcf001faf9fd01000b
f6f7e60efc0ffdf4fc1004f4f0fb0611
0c00e60ffe02fcfb0202fdff0cf7f11b
07f8f4100210fd040e1202fa02f8e90f
2309fd1c1006f4fa120001f705fce715
170d03191bfefcf9030ef9fdfffcfc26
00170512090d00f6fafcf0f4f0fa0413
0011080e0af7fef4fefcf6f8e3f8fe08
fc12ff1506f1f5f4f9f3e40af3fd0807
e71b081c06f503fcf0edccfefb03070b
ee170e0c100103fafcf8dc080afd0305
f90a0604f3070601fceee3031b00fc0f
03010307fbff060affe8ef0a1afeff02
ef0207fafb050404fbfcf71b01f6fcfe
def601e9eb0c05faf9ecfb03f5fb0df7
d505faeee9fffcf90003160bfdfb02f7
e004fdeee80202fc0df2090309040c05
e811f80ce302fd01030b15f3fdff11ee
f10cf110eef300020f060d0b07020608
f61c0512fcf7010108fe04020e0409fa
0c16fe0c06fe010200f1010008030605
fe04040312050102fd07fbf90a02fb09
0a04fc0101fb01020705fcfc050301fb
f90bfa0a07060102fe0cfe0b11021202
130ed514eff70602000a12fb0a010deb
0f0fcc14e3040300fc0c0e01010218f1
0610d711de0402fff100fdf4030017f1
fd07e418d40dfb00faf900f706fe0ded
0bfaf418de00f9faed0d02ec03fdf402
fffefd19d615fdf9fb1401f207fbf6f9
06fefb16e108faff040b06fb06f60107
11feff0ee605f3fd001300f901fdf6ff
21f60b11ee02f0fdfc13fc01fef6e005
1b0b0cfffb0bfef90b0506f9f3f8df01
1a11110dec09f6eefc01f9f8f8fadc05
fd0d012403fd06f105f5eff4e4f6e506
fb0a081ff502fcfff9fdcdfeeb03f5f7
f106fe1af6f3fffffaf3c9f604fd0702
f50a0e1c0c0102f9f2dfce020f01fcff
f20e1117040104fcf1e1e20b21ff09f5
00060619f5080304ffe1f5221cf907f3
e905fb0af914fe0604f503180ef705f7
e604f91fe415fc000207fb120ff5fcef
f50cf507f10cf8f808071110060412f2
f013ff0becfcfe0108fe0d0d010417fd
f11b0716e408ff04100a0efc0e031afb
e91c020ff506ff0306fc1405010300fd
08290c0c00f8030201f4150801050504
02140e17fe0900020401ffff080303fc
030d0007080c0202fafbf8050e03f5ff
0c0d01020a040002fb03f80607020908
00fdf11708060302010705090a041af2
ff0ae41cedf008020200080c0b030ded
0800ea17f1fd0702fffffffb01051ace
1008e81fde0307fefee80502140418ce
0dfd091ddd13fcfd02f1040810040aca
f5fe0719cb08faf9f1f9fd020b010dd7
02f11f0fc6fe01fc05ff05f308fd08c7
fffb1405d20f00fc080a0a0109f706d7
0bfb1408d90b02ff05fdfafd04f7f3d5
0eff1501dcf8f0faf81f06fa02faf5db
190104f9df06f9f7f41d05fdff02d9db
06fe0501dbfc05f5fefae7e7e6ffe4d5
09100713f30203fcf8f7dff3e3f7e7e1
040d021ee30502fcf8e3bdfd00fdeef0
f300051cf9ff05fbefecb6f817fd00fb
fb0c0c13f30000fb04ead30d1c00fee9
f00c0b16ec0c0105fae2eb1719fe06f5
fb120e19f3fff908f7fa0a1826f704f2
f305ff1ee60cf40505fe191713faf7ea
f70c0224e905f4fb1219130a08fe06e7
eb02fe22e708f8f5fd150e070fff0cf0
eb13fa27ed09fb02110e0c10080611f9
f51b0025f20802021f17100e000810eb
fb270618f9fc030309060d0e0a05fe03
0c17fe13f5000202fa0307050605f908
04200f1007f80202faf9f6ff0e03040b
0507fc080102010105fe03001402fc11
001107090009000209fcf8080302fefd
0c01011c0302020113fd030d0b0319fb
08fdfb12fbf6060301f8101b0e0422ee
0dfd0f08f5ff0603f6e7f718060714d5
0ffb0717ebf70501ede6f9fe18080ace
f9f70e18e70b07f4fdd6fd110908fcb8
f3f00f15e40200f8fdcbfbfc0ffefab2
faec0403dafc03fd04bafdf413fcfeaa
08081116dcfa0102f2c9f40903f5eeae
07fffcffe40104f8f3cefff812f2fcb3
0efa0d07db0800f5f6e804ef0201e4c0
140c0bfedc0500f8eddeff00fcfbf2bf
17040810dbfb03f7f6e8e4feedfaf6d4
0e0a0514edff07f800dfc804eef7f6ec
030c0a1ae7fd07fc03d7c7060900faec
0f0aff15f1ff05faf2dcd91111f8f8ee
fa130824eaff04fdfee8f90e22f7f9e3
031c021ae3f8fc0303fe0d1a16f5f4ee
f2000a1fec0afbff0f041a130bf5f6e9
f1050416e401f203001223fe0803f9e2
f2050220fafff1fb121815ff110309e4
fdfef719f1f8fafa011a0602170513f9
f90c001ff2fcfdfd0604171c010506ef
f413fb29efff04050f101210050a03f9
00210e12eb04030205fb101b0706f5f9
07200f1cf4f3010204fb0e0f0c04fd0e
fd18fd0a0e0201020a04020f0e030012
0109fa0a0c080002fef7fffb1202f4ff
090e130b0c00fe02fe06fa0b1401fafa
0100121503fb01021005061cff0114f1
0ffd05fe0608050306f70f180e021be9
07fc0f0ef70001050eeefd18140715d8
05001a11fb01040201daf70f100b0cc6
fff21406f7fe08fa10cae801160504bb
07f60505edfa01fc0ac4fafd15fcfac0
0f010212ea00030102bcfc020efde7c0
0afcf805e90803f6049bf70a10fcf3cf
fe06f60ce8030af40596f10c08fdeed0
0df8fbfde6f607faf09cef0309fceed4
15fff6f6e10508f7f29ced09f9fafae0
13f90804e4f602fc0db1e910e902feed
05060409ddfd02fb09b7d61705fffddc
1500090dd9fb06ff11d8d50d14fbe7e9
110b0022dff700f70eef0a1525fbf6e0
f7fd061de3f4fcf912fe21101af8f3ef
080f081de302f7fc1f0b241515fdf9e2
fef3081eeb05f6021b0e231011fe03ec
fdf20717ecfff8fc19102305000708f7
f2f50118fa0af60106151405060afce3
fb0e161afdfbfbff160d1704010208f5
ef0e0c2104ec00fc13120a08f50813f4
f40c0419f7f801011f0d101a0408fcfa
fa100828f0f2030119f80d0dfe07ff03
ff160b1801f8000203040afe0a05f910
0f0f070f100601020a03090e0603020b
0e15010c04fcff020bfafe031503fafc
0d0703010afd01010d03f70a0000fefd
0905100e00f902031003fb110d010ff6
000a11010f08020214faf9100f0402f0
0cfb0505ff0704051aeefd21ff0713dd
0ef015060315020315fbfb1618070def
fde71513010d020720e1f50e0cfffadf
02fdfe02f40b06020ecdf0050dfd07e2
0403070b00f902fa10bfff1b0afc01fe
04fe04fcf8f601f717bee713f8f800f9
05f2070d060406f40aaaee20ff04f5fd
0dff00f5f60404f7129eea26e10209fa
0cf2fefef90002fa0bb5f51be7f904f7
12f000fae50804fa0fc1f832ec0206ea
0bfa0303ef1301fd1dd9f41f05f50cea
fafef601e9fd00fe1df50f2521f8fae9
0eff010edafff3fd220419201ffff4e1
0efaf009e0fffdfc1a13300c0d00fddd
fdf101fbe5fcf9fa1e0732100602fbf0
f5f00108e9f5f9fc1d0b2713f40109f6
e9e70a0aebf7fffd16121f0af502ffec
ecf7110ef9fefdfd21061518ea0afde8
edf4071af7fefbfe240d1f02ef0d05e9
f6f40b1808e202fd1d091709f10b01fd
02f60816f6e9010115071c1f0c09f002
0b090e21f5fe020206fb021e09040100
0b0a130ff8fc000101010e0d1004f10b
0706051007f9020103f903000d02010d
080c0aff08fc0002fffe03fc0703f30f
020d12040f03fe02100b02051001fd0b
fe0505030b02fd01141308180a0102fa
0cfc040b0f0000041e110e1d100305e9
17050b0c0cfa010128f8fd27020704e8
11f108fa080a030434f1f527fb0401fd
ffee16fa04fc060825e906280e05fa06
08e40ffb03f8040816eefb270a04f70e
fbebfcffff00fcfb21f3f51df8fd0700
0dee0203f704f9041ef0ff1feafefa15
0ce4fefafc09f7002be8fc29d900fd0e
00f207ff0201fb001ff0ef26d7fd010e
01eff6fcf908fbfb23fdf523f3fe15ff
0fdc07fef3fbf8fc1b080226f50011f0
02ebf9f2ec03ff0111091e281ff7fce4
07e8f2fde6fff5fd1e0a281b23fbf3ea
01e20706ddf1fa03200528221803ece5
06da03fcf108fa032c072b0e03ffffe6
05e4e90cf5f6fcfe23072311020200ec
f8ddfd0de8fe04fd2605250eeb040ae0
f2d3fcf5edfffe0324001005ef0effeb
f8db0f08e708fefe1d041c05e00afcf5
00d5010105fa00ff12ff0412f207fdf5
fbe6040c05f8ffff1d020309eb07ecf8
0eef1511f7f300020c08011d0404f90e
03011406fcf10102140b0c0c0d02f3ff
fdfe0d0a0bf501020202fe101204fd08
080cfe06050102020900fe080e02fa11
0f110afe0003ff0206f5ff031502fd0d
0b060002090801020608fb111103f505
fc0f0a080cf901021a11ff131303f505
fa04020014f8fe022612fa190d04fef8
0fed0bfe11fcfc0315090022fb0601f8
12e410f111f8f9011c02f71ffb04f81a
0cea04f50e06000325fafb20f5030017
06d4f1ed0704020525070321ef0af805
10e401fa03fdfe042902ee1bf705040f
10d70901faf5f8fe2b0afb20e002010f
0bdef5fc010ef6001a09f01ad9000712
07effcf706f4f3fb241ef418eafcff04
f4ee00f9f0fef6f9121d0b1bfdfc0bf4
f0d5fbeee90af4fd201d1a0f0df90af3
08e101f2fe08fdff0f1d2b1611fe00f5
04d90102f20af6f9190e26180ffff7e9
0dd1fef1e300f7f925171d18050204ed
0dd8f4f2f1ff00fe1e0d1efc0afcf3ea
06c401e80400ff01200020fd0404feed
f4cdf6fbfff6fefe110914fbf101fff0
f6c9f0e7fdfb01010fff0cf3f100fdf2
f0bd00f0fe0602ff06040afcf907e4ea
f9c3efe802fbfe0005060d16fa04e9f0
07e00ef503ef000110060512f908ed09
06f014fbfaf701010e0900080404ecfe
01f514f2030102020bfd06080302f904
fe0c01010308ff01faf9080411030107
030108fc05070001f8fcfbfe06020009
fb07030a0e0f000202f2f5fa1603f602
0901030d05080002fbf7fb0b0902f111
f8120c0007fa0003060e060e0903f3fb
f901fbfc1305fe040d1d081dff04fa09
f6f102f50ef0fc05130b0310ff0602fc
fedd07fb17f0f6040c15f818f505ef06
fdccfbea0709f9021a0afd18e607f316
05d50204fcf9fc071f0efc0cf807fd0a
09d101fa0905fb0013130118eb0b0713
11cf03fef8f9f3fa091def10db01ff07
fbccf30d0a05f5f9231f0010e7fffafe
0bd2fbf81300f8f5102605fef4fa09fb
08c80afefcfff4fb1725140d03fdf4f5
05d8fcfbf8fbf7f825141212fffaf6fa
fccef3ef01fdf9f71f1d27061700fbee
fbcef103f113fbfb200e1e0418fbfcfc
02cdf2eae2fcfafe1110200310040bef
05bd07dde701fcfe08061501120008ef
14c3fce3f1f7fafff5030bf4fa01fc01
0dc3fde4f20903fffb050c080802fff2
01c6fceef8020101f0fd0a01ff03fcfc
ffc4eee8fa01fffff5060304fa01e0fe
0dccfff8f8f9fe010afffdfe0004ebf9
00e301e6fdf5ff0303090b041006f60c
04eb0af8fff8010206f8f8000f03fd00
fff200f0040d0202f6fd040b1504f70e
fef9060205fc0202fe0707fd150402fc
0203fe0a0a0500020702fe070b03f307
0dff05fc09000002ff05f7051202fa06
090afcfe08fd01020008ff070802f90b
050902fa08060202fa0302011702f50a
0bfa0e001006ff03ff0705060702ff0e
09fd0b0100fbfc050f09fc050503fc04
fde905f109f7fa040214ff06f105fa0a
05dd00f60202fc060a0fff12f204fd10
0ccdfaf20506f7040313fcfde906fa03
0ed405fe05fbfafe091509f7ec09070c
0fc7ffee09f5f902041dfcf5ea06fdfa
10cb01f608fcf4f9121e0904fd030202
fec50402fd04f5f5122115f20508f801
0ac6fff2fe04f1f20a1c1ef4fc06f4fe
0bc002fff0fff5fc051921f90104e7fe
02bcf4eef611fbfc05090be91600fdf8
0ac2f9f4fa0000f8fa0d21f20d010af4
04c708eae508fffdfb0a23ec0b0312f6
1cbaf7e9f80dfa00f6ff21ecfe0011fc
0fc701e0ebfff904e31315ea09040200
0acd00f3f90d0002e90b1bf70004f6ef
06d7f1ddf612fd02e3080beefdfdf1fe
0cdc07d7edfffc0002faf4fdfffbebff
02e009e1ed0f0101f2f9f4fe0801f7ff
0fe303e5f7060103fff9fd051101f9f8
0aea01ea07070001f3fcf6f90f02040c
03030cfe0e0b0102f4f2fa0c0d0204fd
10030b0cfd0d0202f9f806f71203fd09
05100b04040a0101f60402f91303f70a
06030c020d0d0202faf206080f020703
0d09060b05fd0002fa01fe021402050b
060f020c00f90202fc04fafc170301fd
010e0cfa07050202f9fe08011003f609
06fd03f80c0401020a0a01fb0a020400
f6f50f04fbf9fd02061108f50001f601
01e80cfbfd02fc04f91a06efec02fc02
07e00cec0bf7fd06011f11f2eb05fd0d
05ea0af10dfcfcfdfe220af0f104fafc
0fd6fced09ebfcfdf7151deded04e707
0ed0fdf118f7fcf9031a1fdefe06e2f7
10d4faf300effaf9f91618ec0006f7f5
0fd3f8f8fdeef5f903101bd8ff04f1f4
ffcc01e1fc06fef8e60e1cd80f01f1f7
0dd5f2fef8fb02fad4010ece15010c0a
12caf9ea060907fed80e04d4060109fd
0edff7f8f10103fcce0a11da090213f5
10d2f7ef04f7fe02d3030fe905fffefb
15d2fae6f908fb02d30405e90cff04fb
16dd0cebfa09fb02d30d09e70dfefdfe
0fdd0fe9fffeff00e7f607f00cfcfb0a
11e7fce0f009fe01f1f7fdf112fdf5fb
07e005f1000c0001eefb01ff07fff503
08f90becffff0202fdfdfcff100201ff
fdef0af00d030101eef9fd081a02f900
fc0af705fffc0002f403fbff0d03050a
0400fe0c0708ff02f801fcf81203fe13
fd14fa0004fe0002f2f2f8030b02fb00
0809fa0611100101f30204061103f70f
0c11fd03110c0102fcf5070a1303f303
0607080e0b0c0201fc0502051103fa06
f7010cfb10050101050aff041401f310
04030af716fc02020207fe090701fa03
08050b01020100020607f7f905fff604
fefe02f90dfc0002f80e05fefb00f2fb
f1f9f6f218f6ff03f811fff6f002ed08
f8ef06f907ecff00f3120bf7ec00f503
11f102f904fe01fce90d12f30000f1f6
04edfae416ee02fade201ae0fb06eafc
08dc0ee605ea00fbd00516ea0b01eff6
0fd80cdcffedfcfada0909ec020306fd
07e703e209f7fff9d2f718d7f9030bfc
fce404eb03f3fffdc90402e0f7fff801
04ed03fafbf003ffcf1101de020006f2
f1ec0bfcfae50000c205fce5fffa06f5
00e401e006f4ff02db0603eb0901f8ff
f7e805dfffeefeffe20803f30401ff00
fef80fed08f90104eaf7fdee11fff9f9
0bf2fee700020104e8f5f8ea02010305
ffe502ec0dfb0102fafaf3fc0d02fb07
fbedf5ff09000202ec07f6011600fa01
06fe0a0006010102f0f8fafe1202f509
10fe0806050a020205faff0b1902f710
01100c04ff020302f6f1f30b0c030011
fc120b10fe04000107f2f60006030209
0b110c0a06040002020506021602fc0b
0e14f709ff0d02020105020312020704
fe13f80efe100201fcf8fdff1602f510
fe13fa000e07020101fafefe08030104
080a0e0d0406010201ff00fc06030601
051202050a010202f90601fb0502fb09
f809120b0804ff0205f8fa060702040a
f70810f908070001fc0000f80b01f9fb
f2f815f00dff0401f307f7f6fd00f00f
ef0005fa09fb0300f208f8030300f305
f9ef0be711f60300e711fdfa0bfffcf3
f5f002e61af60200e11dfd001800f4f7
f4ea09eb09ea03ffd9190b030301ff07
f5f203e50ff00000db0801f7150104fc
daf30de018e5feffd71afaf90803f7fc
edf105e312ebfd00df1df8020afef6fe
ebf609e107e4fd01eb17fbf305fdfdf0
ebe40ee602f1fd04f116f2f61300f601
f3eb08f806f20203e31402fa0402f2ff
f4fc06f005f70204eb1404fa1302f307
edf202ee12f10206fc00f5fe0901f4fb
fff30bfb0bfb0102f2f6fa011a00fd11
0af60800100b0101f7fbf1f71403fc02
fb0bf4ff0f07010201fcf6ff0703f814
0301fd09120e030105f6f60a1002f2fe
02fff8ff0a0f020201f205fb110302ff
ff11ff0609100001fff3f4fa0602f70f
0a030408060c0202fdfa07f91102fb09
fb09f706100e0301fd0501081903f409
11080d0101fcff05ff06ff0314070216
0efafb0500f5fe10fb04f6030a040603
0c0600f201eb010e0709f60a1004f60a
06fb01f8fbf9040a0e0b08fe17fc0804
010b04fa08f90b14080902fa14000905
03f900f201fa0a060aff080d10010914
150afef3fcfa05090f04fa0817fefb09
11040cf3fefb0d020cf904060aff0610
05fe07fcfdfcff070ffafa021604fc08
100b0cfbf8f9140c1aed08fe180d040c
14fa07f8fcf006fc11fbfc0303000b06
0cfdfff8fbf1060c0cfd000d12fb0313
04010af509fe0b0718fcfffb140804ff
0603f9fe09fb08ff1efb000c150c0008
0506fcf707f60dfd1d0709fd1ef6fd10
0bf507070bfe08001b080d061c080a00
fd03fcf7fdf411072109070c170af805
fe0901f702f307fd17f70c0a1d05020b
07fb08f410f3040118f60005170aff12
00020cf214fe08ff06f7030910fefd09
0d00fd070def0c120ffffb061afbf601
0f01fb000cfa0f0f0f01f50a190efb01
0d01fc01fcf608ff0c0bfc0f1009fb0d
14f806fe08f30f00fa00080716fc0114
03fb01fa04ed03040efd05fc06fc0401
140a0a01fbfc0612050501f90707f604
070c00f2fcfafe120506f808070bfb03
14010cf606fc00100507fbf90e0df502
020bfef8fdfeff0d0401040c1505070c
11fc05f7f8ed0101fefd0cfb140af611
150bfcfffcfc0c080dfc01f91708fe02
150801f805f80213080efb0c1808fe0a
0b050f0406f3fe03fd03070006fefa0d
15000afd03edfe0401fd04fb11fc060d
0cfefaf2f6fe000c10020d0b050e030f
1002fdfa07f90b001eef06fdff050409
0afb07020aff05fe18e911060cf70707
18f5fd03f7f609ff20e815fff7fdfd02
0901fdfcf8fa0afb1aef0902f30207fd
02f00604fa060ef51cf2130cf2000705
0cf1fc07f7fb02fc2bfa111002faf904
0402fe0505f710fc1ff61308fa0cfe01
fbff05fcfafd020222fd01120ff70209
0afe04fa02fcfafa24fd191501fff80a
0b02f6f81505f8fe2eff121519f8ff03
0cf4fff91afb01fb26f6110a21f5fcf8
0304fb0717fffb0f1f000e161d00f500
f1f903091d06010513fe000b1cfd0605
0c0413fc09f8f6fc0b05feff0f00f800
04fa0af70df7000902f8f8112003fbfd
09fa110105f2030d04ff070712ff0902
110413f501fdfd10fcfe07ff0b0b0316
080204fffaf50214ff00fa060ef80505
0d090704fbff0b0702fd04fc13000115
0ffa02f5fffdff0c0c0708fd0602f603
15060bf20aef0f12f90ef6fd1601f807
0e0007f40cf7130c0a0c020110fdfc0b
0a04fdf809ef0808feff04040505f816
0dff040205fa050bfa04f8021504f90d
13040cf301f70604fc03fd05110bfd04
050107fefaf70510fdfe090813070812
09f60706faf7120817f40e090a0b070c
1bf502f5f7f8000718f60cfdfffa0101
17f902f7f9f000051ceb160ef708f810
1af2010beeff010307e212fdf9fbfc0d
0df8f3feeb1005fefcef0df5f2fe0cff
11fcfd01e90afdf408f60ff6e7fe03f9
29ff050ee22003fb18ec1708d7f703fe
12f611fff41801fd15f3090febf9fbfe
19f50902f81506f305ea0922f5fdfd09
15fa07fe1416eb0515f6041afdfd0d0c
02f60f0a101de00317f1051010ee120c
04f80a0e2523dff520fe0c0f1dfb11fe
e4fd0c08231ae6f503f9fd0c09fc0b03
f005150e2113e8ff17f7030d17f902fe
ff0a0a021019f4f518f50a0314fb06f9
f20012fb030dff010301010c25050802
fd0717000e06fc08fe030501290a180a
03fe11040efcfe08fc02fe0a14020213
02070b0203f80a060609f30317ff0705
0906130611f50b00f401fe0b15fb0f04
ff01030003fa07ff0a01f9fb1303060c
000a02fff9ec0d0d0efefa0006fefe0e
15050c010cfc0e12fb08010d160d0602
060208f5f7ec0e09030c06fa0c010003
020c0af60bf702090c060c050404f504
02fe01fc0aff0a0501ff02fa0a080806
1903faf601fe020905060c000c05f912
1cfe0406fcfa0aff04ff110113f8f810
0efb020005f800f306f60afffcf8fd0f
15f6ec06010003f812ed0ef7fdff000c
230be3fdfe0808f20aee07ffe8f40706
1bf6eb01e20505ef01ea0cf8ecfdfcf5
1302f613f01b01e608e00decd0fbfeec
220211fcf11701e8feee09f5c9fafbe8
15f41706df2307ec05df01ffcffafce3
130c170def1e08e608d8f409e0050ef9
1ff70f08fc19edf60ef2f9fbf3f607f2
150403020d16d2f11de1fdfdf8fc180a
0904110c1e1ec6f623ebecf908f31a03
0bfc04071b1cd1fa13f5fe0909ec21f8
fafc08162119eff117eef21f15f01801
f6032816171cf3e80bf9ff0d14f5190c
e70c1c14191df0ed08f4fa1120f21407
ec000f081713fbe8f7fdfa101b071d07
f9021909181401f7f30704fd18f61102
fe0210130a080cee0af9f0f314f8060c
fa03110a140b13effdfcfdfe0700111f
fe0415fc0e10070400feff0efa000110
0d0518f111051100fd10fa0502f9f708
0afd03f4fdf10c0b0a02f8fd0603f812
0a0507f309f1ff12050bfa0c10fdfe0a
1300fa0205f00b010406010504fb040f
030d0bf9ffff0e00fa0406fc0b0afc04
0af7010203ec0800060c020303fe0804
19fd08fefbf80a07050503fd0807050d
0bfb0af605f8030500fc090203f6f809
12fcf600fffe05f4fde917fcf400fc01
0602f004f1fefae5ffea18fffbfd00fd
09fae1f8e8fd04e60adc17f1e60104ff
1108ea03d7041bdf01e40dead10700fd
0ef9f7fae11b1cd408e511efd2f9f3f5
13f707ffe21509df06dd01ead40e00e3
19fb0eede01519e20ede1200da0300e1
1cfc0a09e81702e90fe0fc03ec10fbe9
12fa0df80b17d3dd1ced01fa07fff8f7
09f3fc02ff1cbde817e6fcfa13f514fe
11010bfa1a1cb2e218dd0c0114f80eff
02fef20f1f0bc6d51cd3fd0608f10101
fcff090a040ddce707dcfc080bf00beb
ecf90b131510f1e7fddc010513f60402
e706120902190ce0e2e2050612f61204
effa030c131a10e6e0ebfb0204f40908
e7f10d1812160bdee5f4f8030eee0c14
f0ef0f171b1020eff1f408f60df60a17
e50209161b1d0fe6f406070104e8ff10
f1f4110e120e0bf3f51007080bf9081d
04f70a031a070209f90203ff11fe0704
06fa05fe0ff20ffe020c030c0008010e
120d0cf909ef0e1105fa0709120c0916
05ff060503efff0f08fd04fc0efd050d
08fb06f4fef60e03060dfafe0e00f60b
0efc07fbfeff000202fffe0802f5fe02
170a04faf700f9f80c070d090ff4fafe
0dfd00fc04f6fbfa0cfb0e0601fd0106
1003fff7f3f906eb03ee20fbeefc0105
fa03ee02eb0002ebf3e71ef5f608fef7
0606eeffe20dfdec05ec23f1e10003fb
fa05f9f4dc141ed600e90ee6c605ffeb
06ed06f2d31719da05f211f0c209fada
06fe08fcdd1916d1f3ed1ce4c10ff3db
12fc1ef2e02d07ce05f112e7ed11f0da
11fb07fee31eedd40fec11f2020dfff0
0cf90bf80010c8d30ce90ffa030d06f7
09fe03030221aad204dbfd040fff1309
07f8ecfc0b1c9fdffcda0d060f0c0004
f9f9f1091011ced1f4ea0ffd12fcf702
01fffe1c0b05e1d4e2dd0d0b0bfdeff5
f602fe10fc0008d5c1e8130810f6fd00
ee080015fb040dd6cbe3fff9020003fa
e2fd010b000629dac1e30f03f3e9fff4
d2f5f40a070b0ed2dcdc0df704f8f808
e0f3fd01192015dae2f70503fcf2011e
eff20a14081108ddd5fc080bf8e5fb1a
ecfb0d160f05f6eaeefffc0f0ef50e07
fafe0dfe080608f3f60cf20b070cf80b
0404050401fe11f9fb08f2010e07010d
03020b01fc000607fd09080c010d0016
0c0706f503fb05030dfc00070a020303
020afaf707f7020b0a06050b0afef703
1401fe02fbf2fa09030c03060b06030d
1af7040000f906080707110c0cf60208
0e0af8f2ebf3fcfa06ee100701030601
0f01ecf7f20400f6fcf013fcfa0902fa
f5fae8f2e30e00e60be90df4eb150aff
f801e5eed80e0feaf2f222ebe41df9fa
09f5efece00716d5f90229e9c216efeb
0ef505f5dd1d0fe2fbfe23e4bc17fad4
ff0217fae8110ce4f7f518d5d402f8cf
0af81af7f0171bceeffe23e0fb1703e5
07fd070af21404e0ebf71fef170705ff
13ff030a0b1bd7cbf5fd1aed20050001
0b080105f209a5cde4ed1501160e0e0c
0702f3f8f60da0c5daea0f021a0a070f
070bf1060005e1c9c2ed0cf71cf60204
f408f704050502babc0007fe0404f5f9
fbf7f30906f917c8b9f50500f5fcef00
e4f4f40f06081de6a8fa010df3e5eef5
eaf8f40103101ce1b8fc000af0f40101
d109eb07020311f0c2e80806f2ebf60d
d0fdf80012090ee9c6fa0607fcf5fc03
eafff8fa0e0a01f4ceea0510eae00306
e5f91302080ef5f4eff6f602f5f60ffd
fb0908040ff705ecf301f706fc02090e
fc0708f80ef50804030beb0c04fd0206
ff0c02fb07eefb0d0a09fc0602fafa03
0cf907fb06f80b1007030b0218040814
060c0b05fcf110000a05040e0005f308
120108f902f9fe1100ff0c0f0bf7f706
0cfdf8f00200fef60d02150301fa030a
0e0000ebf8fdfe0311f70700f5011202
0904eefdf004010200ee00edea021500
090ce5f3e715fcee0fe615f2ea0afafd
0808dbf8e008fff0fdf60addda1006fb
0405f2efd50a0ee201f617ecc318fbd7
12f914f9dc0218ebeffb1acdd01604d2
fb0020f6faff0ddeeef01ce5da0ef5cd
02ec1ff3f80d18ddddfa11d9080f04ed
09ee0cf809ff05d8e3f01ed4150f0603
0b0213f50116cee7d6ff2cdf3001fe12
1508eef90c0ea4d5d30821ed1907030c
1f0af9f70008a4e0ce0421f218f70afe
0bfcf403090af5e8c5f816f506fbff07
01fbf2f90a0c21ecb2010ffd0004f6f4
e9f3f90703fa25ebc50e0afae501fdfb
e106f4fefff71afdd2040907e8ebff03
e0fbeaff040110fed1fe0102ecf7f700
d2f3fafd03f813efdafe0207e5f00300
d10404f9fff10df3e1e6fc0ee6ee0509
ddf60d01fff7fa00d6e5090ae5e301fe
ecfc10fcf800e4f3e9f004f9eaf80b01
fffe1805f9f6edfdf9fcfffbf8f6ff08
020d1205fcf900fdf700f10cf906fd0f
fa10100404f1f900070903fe0106fe13
0cfb0cfafffe0a0f0300fb0713fcf911
0efa0af204eb0f050701f6fc10070002
000208fef5f7070704fd0eff09f5ff13
1003f6fbf1000307110004f90af8050a
0f11fcecf00604040703e5fcf117000b
0214ebfeec0df5fa08f1eef8f7110509
ff0ce2f1d90701f802f905ede80f08f6
fb11deeddc080bef05f000e1ce1114ec
01f903fae50f03e8f8e408d9c81608de
fc0112ffe30b1bf803e80ad7c613fac9
eff82af2e91014eaf90103dae80403db
f8ff2cecfe101be4f3f3ffce10000feb
faf90fef031201f2e00506cb22f60806
0ffe0df70904cef3e0fdffdd25f8020a
19fcfaf5f900b1f4c7f211f71afc0210
33f706f4fefbb8fdbd0d070810fef1f9
1908f6f8fef408fbcc0d12fe03fee7f1
0a0904f3f8f5240ed0060201d0faf4f2
f608fceff2ff2403d00b0203d3f3fefa
d8f7f7ef00f01408e4fd0af9d4f7fffd
da09fd08f9fb0d02ecf2fefdd903010c
cbf600f3f0010f0cefeb010bd6f7fc06
d4081107f401f1faf4e70407d3f001fa
e10a03fafd01f7f8e9dffe01d4e2fff3
e4f90902f5f6e3efebf0f902eee903f9
ecf71d040bf8f5f0fbf5f105ecedfd08
f5f710f800f5f1fbfc09f4f5fefc0210
fc020b0108fcfa08f90ffdfc0001fc06
0f02080200eb13150503fdfb16ffff0f
0d05ff0200fa050afefb00fb0f080907
11fcfe05f3fc0a0514f7ffff0906f501
0a070df6f7f7fe01120aecff0a04f807
0505faf6f70d0a0213f5dafafb041404
0a01f2f9db0df5061ee7d9f9f90909f8
fe08dcf3de11fdf50de4e3ebe11f07ff
e817defad50c03fc0cf4e2e3d50e0dd6
f304e5fed6fa05f911e7e1dec20c02e3
e3f908fce6140d0d11f1dcd7d61502d8
eff913f0ff111d0513f4d5e4ea0809d8
fcf92bf10c08271507f2cecb040802f7
14fc31f90d010601f200c9c520f50202
200118f10300d719d9f8c7e531000711
2c020bf7ed0aa716d60edc03130c080f
27f50bf5ef05cf13d604ea17fd020b02
23f614efed051b21d6000409e00af5f4
0d0114f3f9112221df05040bd2f3f5f1
e8011d02eafc1e08f3020404d40400fd
c8fb07fdf2f90d0ff0030007ebf9f80c
beff0afffaff0101060901fae2fafa0b
cd060002f0f509fc0bfe06f3db010002
da050dfefefef6010dfe0c08e1f30206
e210141203f5e1fe0df6fffbdbea0701
e307090e0900e7f10dff080eedfc0500
f60319fcfbfaf0f40409fb03ebf70617
070316f60cf3f00000fbfd0206fd0f15
06010cf503f5050bfe02fe011409fe11
14f7fefafff2fe10140c040b0908fe12
12fefdfafff904020d0800090f0c0614
04000cf6f20200091e01f7fc04fef80a
07fc0107f7fdf8000e10e304fbf60c05
03000102e40af7031ff4d7f9ff100308
070ae6f3e407f10116f0baecfa0c0cfe
f3ffe50cd502fe081cf8bde5ee2113de
f00cd00cd40505fe20f6a9dbcf1c07d8
f50dd306f0f803110de0a9ded91502d3
ed00ecffe511110d16f09eeee40b00d2
fe060007fc111a111ff3a4dffc01f5ee
fff526f8f813161710f0a1da02ed0afb
17ff23f40a10061a0af8a5e21bed1000
29f824fefb00ce1d0a07b3e91ce60005
38f61eebfcfcbc22f7fbbc0c19f10a18
2ef113eff1f6f127fdfee109ff09070d
19f50be9ff091112fdfcef0df20509f8
fdfa13f0e8092f1615fcf60be5070aeb
d3f40ff4ed06171014eb0307e80cffff
d00411feeb011114180c09f9ea04f901
c50f1cf5f8f8000511060608f1080af0
da08070309fdf6fe14fb01effaf40bff
de0d16fbf7f1f1fa0ff5fcfcfbf5f5f8
e1071f10fcf2dcf52103f504fb040dfb
ed09170207f1e1f51907f806f8040406
ec0c1cfafefbf4fb1c0ffc05eef9ff14
fafe250208f1f1041114f80af6fa000e
fd0914fe02ff0c030e0ef9fa0b07f604
0d00fcfb04fc0c0e01000b06050bf910
03050f05fb0106081400fbfa1400fa09
01f6fefefafcfb101ffafa010f06f6ff
050306faf106f3151805d2f601070502
0bfefa01ef0201081ef6cbfc040707f4
ff0be6f7e40b02ff08fbafeffc140efb
f8fbe400e5f6fd0219f9a8e0e1210ae5
f710d00deb03010a16f7a2e7e11900e6
0711cc07eb03fe060ef29edfe21805e1
0613d4fff4fc001622ef9eeff60dfdd4
0effef0af4fb0e1d19f1a6eff80ffcda
13f41407f2fa161117e5bce70ff800e9
1cec27f70bf5ff1423f4d2e111d109f6
2e031aeef9f9da2013f0e3fa0bea040b
2ef90bec08efdd1f18e2ed020ef8fa19
20ffffe7fefcff1f19e0f625f9f8fd09
fcf705eafdfc1d1321eafa23f7fe020b
f306faf0fb020dfe22f7f91ff80d01f6
d30006fff305080d1efaf706edfe0f00
ce00100df10d08001bf50904f30cfbf4
d2081604eef0020f2700fdfafafefbf5
d503180ffe03f9ff1711fdfdfefe07f4
e307100ffbf0fb0921f907010d0707f9
e10617fc01fce40b19faff03060b090f
e90e13fcfef9fbfe12f8fa06ecf60223
f9090ce9f9ecf0011b03050ffd021429
fc071a06ff0003fc1106f80f0500001a
040106fdfffd0003170c050cfbfafe15
0406fffdf9ff08130a01f9091500f70f
13ff07f601f706140400fd03110d0612
0bf9fd01f7f4f1170c07f0fa04fff1fe
06ff07f6ef05011b0b06d7f804030efb
f9090403f00603071005d4f3fa0d0efa
02fbe80edafe070b01fcbdf1fe0d0301
fefcd901e2000601100dccdde61c0def
02fed10eebfc070906fccadee9190df5
0914cb0febf8040909f6e2e2fd19fbf9
0104c404fffc00070600f0eff41f00f0
050fe2f5fbf4070915e8ecfafe13fef0
15f8f7ecf30904fc15d801e51ce701ef
12fa13f7060d010d10c606ec0ae101fa
23fb16d8f8fae30d0ddc0ffb10df0a11
130613e2fcf7e20f1bdb070c07fbf709
1212f9f312f1fe121fe7fc22f9fd070c
fd06f5fc09ed0d0d1dec082300fb0304
e903ed01f8fc130e1bfdfe13fb0a0808
de0bfb0009f9080a21fbf616f70900fe
dafcf811f4f9fc021afff7050101fae9
db060507eaf5070a1c06070b0004fbfd
ec05f707f9f60914190f03f309fff3ff
d7fff807f7faf8091a010204180df00a
e401fcfbe4e6f4142afa0afafb0efe25
0016f6eafbeaf80812f6030d0afb1721
0607faedfaf5ef0a1ff8fd0cf604032d
fafdfff702f7fc0d0701060cf7f80022
0dfe0cff0a01fa0e0d080c0501f5ff13
11f60af304f0040e05fd000b150df711
0803050406ef021b110bfe0c0e05fc0d
010209f1f5f5fe1608fefe0c0404f710
f90c06f4fefcf00a07ffe2f30f0705fb
f30e06e6f6f9fc12fa03ecf4020cfa00
01fbfdffe7ee0202070ee7eced02fa00
f8fcf8fedcf4fd09fd03faece71802ec
0911d9fae4f8f306f90304ddec0f0def
2007d6f1f5f2f502fbfa02d5fe250ce7
0c13c7f5eafbf7f902fa11f702290ce9
140eeaefe9f708010bec1df31e1406e4
0e11f4e905fe060411e216e90ce314f0
0f1112e40218f7000dd017eb08e107eb
0dff11df0209e902ffe513ef0ae1090d
0c0fffef19fff1f907f8020301fbfc12
0a0afded12f8ff0518f30518fe0ef419
f5fee3f103ea120b13050415f4ff030d
de14ecf4fffd0f0018faf80dfb0708f8
db16de02fcfa0f071c13f4fb000bfa00
e20ae105ffea070b140a08fd0507eff2
f00aeb0b01e7f917041107f704140dfe
fb15ef0cfde90a110dff09f60e100b12
f110e4f4f3e9f8180900fe070303051a
fc09f0d6edf000061bf114f50b05fe2a
fb09fae9ecf0f71b1cf10c040df21b28
f8faf6f3f1f2081116fd01020601162c
08fe0cf703fb090d0df7fd0508fafe21
090909f507fafa07010400fa0f020410
03fa04fdfaf20b04030b10070efe0701
06040ef4fff80b0d0a0e0309110af404
09f604edf101f417ff13fbfc080bfffd
f105ffe1fcf1f715020701fc04040002
f613fbf2f9f2ef02ed08fbf4f4fd0905
09fdfcede6e4fb08f31302f6ef070efd
05fafcf4ecfff201f20d10e8ee0a0bf9
1afcf4e5ea05fbfef40a24d8f90b02ec
0e00e7def206f400060813e9f71d11f2
040cd8e1e90ff2ff01f821e60d210cf2
fc0fe1d9f709f9f703f211e1161520de
1216fbd4f51309ebeef60be30df721d7
0d18fde90716fff1f2fe12eaffe203e7
160a100c1cf9f4f4fff80efafdf2fb00
0b0b0a1105f4ffecfdff15020603fe22
0717000508eafd06000a0b02fd15f51b
f313f2f001fafe01ef100cfdf708fd16
e90ddbf3fff80204f312faf8f9feff11
de12e0fc0ff1fa0cfc17fe03ff05050f
ec22e4f5f8ec0714fd0a01f8fe0a0103
f113e3fc08f607150a030103180bff07
f920dbebfbea080ef3f402fc0703fb10
0a1ddae6e5e90611ffe9f4f210fa0e17
0b10ecd4f1ee0e0f09e706f304ff1717
fe06f5e3fde5000305fe0afe01001f2d
07ff01e9f2e9050d13f10c00f7000510
0df6fdf909ef09f507001507fd03060f
04f90603f9ec0efe02000b07fe01f90f
04faf9f905f00a0403ff040206f9f805
0ffa07f807fb06000a0ffc020a000308
010403e900fdfbfcf414fffe0c05f3ff
f10a0bf3f2ec0305f1110705fc09fb05
0afe0ce607e600eee61100f5ff020b09
0ef816d8f9ee0001ed0b17faec1601f9
050609d3f3fb00f8f30f1fe9ed0c12f5
fef3fbe1fc0101f6f90e19edf71708fc
03f6f1dbf8f9fbf4f9201adefd1306f3
040ae5e9f109fbfb0e1108dd0d2313ed
fb0fe0e7ebfcf7ec011605d612061cda
040ef5ef090ffde9ec1509d509ee1beb
041b000a080302f4eb0106d407e909f2
0808100f0b02fffef11605e30ffaee06
0013ff1318f5fdf7f30bfef3fc17f321
e515fefcfcf507f0e70203eefd12f910
de0ee7f8fbecf902ea10fdeef60cfa05
eb1cf2f4faef00faf000fd03ff00ff0d
e614e5f509f811f8ef0a12f90000000a
ee1af1e7f8ecfc03ee03f6f60cf7f803
e612f0e7f3f9fa07faf8fafb0708040d
f607f1e4f0f70b19f0f60b0011f50a05
02f9f0d7eff0051d08f3fbf306e60110
06f4f5d1faeb0b1004f00aff0ae414fe
07f0fdd7fef1100105ec06ef09fa1e05
fbeef2d900f9030a04f306f5fd01080e
1000f7f400f0fb02fefd11fe0df90904
0bfefcf4f7f0fe0804fc04f90b03070a
0c05fafcf9eefd01fa0bf9ff050d0209
15fcfcf104f1ff02ff0709ff04f5ff12
07fc06f1f4eb04030309060a0bf105ff
f4f10bec03f4f9f9f81113080aea0bfc
050110e8f8f303fff408081201f50ff0
12fb16d9faedfa08ef1710f5000dfff4
05f61ae4f0f800f8ec0b0404f80a0def
fdfbfde9f3f605fbf60c01f5080e16e7
fdf505ddf304f7fa031affe7f9130ae0
0808f8e5ec0b01f6111e03eafe0f1aed
ff11dcfdf4f805f5021901e3010411e0
f70dee0307f3faf4041703cbfd0308e2
f712f80f12f90df2ee11ffe2fcf70ffb
ed0309280bf6fef0fb1604e7f802f005
f818061b04ed03f8ec0f05de060aef18
eb06f00bfef504f7ef0207ed0612ff18
f200f0f909ee0506f80e08fc0cf7fc12
e709f5feff00fdf9edfa08010101fb00
f30febf2f1ee00f405f809e806f9fe00
f210eed9fbfefd06f9f306f4fef5fdf2
f00af6e2edf2090404fa0104f903fefb
0906eedbecf10bff02faf707feff05ed
00fbf2d8f3fb0517f3e10ef80fe50cf6
01eb02d7f9ec0bff06f303ef0beb0403
01ebf2dded07ff02fcdc0efa0deb0409
07eaf9ecf0fb010101f30af307f4fd04
0efe0800fffb050af9010d04f906fd04
08f9f8fbf9ef0f0d0500fa08050f0408
12ff0c0106fb0e05fb0df70116fbf903
0b03f6f206ee0500ff0a03fe0ff6f80e
06f006fc03fa01f9f106110812edf710
06ef04f007fd070cf5f50d1d05f100ff
05ff0edef6f90b00e9fb0714f5f3fdf2
10f90ee4fdf0fefaf4fbf7f4f00500f8
0a0011e6f8f80801f81005faff07ffe4
f4ea0be9f4eefafefc11f50bf80116e2
f7ff0dfaf5fafbf2070dfcf2fd0e0de2
00f90400f1eef6edf419f1f6010606fb
010cea00f9f6fefd0229fdeefe020ef5
f804f20eed0503f2f32b04f408010ee6
ef12f91cf6f00ff5f91e00e0faf80a0c
fc01021808f5fdfaf415f1e10610fa15
f30fff1004fc04fcf2160aebf507fc16
f8f1f71207fffef1f91ef8f4f9eefa19
edf9fc07fcf40301f50bf5ea02f0f404
eef8f0f7f203f203f90cfcf0fcff06f5
f903f0e2e7f8f4fbff05fe00fdfef8e6
f70cfcdd01fcf601fbf8fffbfff5f3ed
07fdfcdbeef00207fcf9010efaf1fce7
010bf7cc010008fcf8f5010902ee11f3
fa09ebd20103fb0ff8f3020007f411ea
09f8f7dff800000deeec03e70be316fc
fdecf4dcfa0bfd01f9e301f10cfe04fa
00f0fceded01090cf3ec04f407fbfd0b
01ecf8fdf8f10b01f601f8f505fcfe01
00f5fdfb07fc03100d0c03fefe0dfc0f
0afa0106fdf011050bfd040d0201fd12
0c040305f8fb050507fe0f0e10f50c0b
0404070805f1fb03f5f6101901ee0103
f2f5fbfcf703f5faf2fc041703f2fdf5
fa01f9f4f50203f1f106030305fd05eb
0aef06ef01050001e70d0914fdfdf9ea
feec07f30afcf303f709091dfc03faea
f6ea0cec01f1fffff51af710ff07ffd8
ebf812f6faee0105fc160901eb0c0fe8
fb000403fffa0b08fa140105f903fbf2
df030200f4fa03f9fc1cfa0cea1205ff
ea10090ff6060205fe1bfcf5fcf912fd
f607f60aecf60504061305eefdfff706
f004fe03faeafceb021bf6e1f900fa06
f5fdee0e00fef9fb070b06e105fcf60a
f8f5ee11f8f0f8f4f71802edfff6f50e
eaf6f4090009fbf90111f7f807f104f8
00fffbfafafdfe08fb04fd0bfff100e8
f6f8f8f6fcf6fe03fc04ee02f2f2ffe9
0500efeaff00f804fb08f1f5f60002da
f904f4fd0506fe0cf606020d07ecf8e9
0609ecf70afb0203ef0105fbfcebfae4
fc00e9f5fd0fff00f9090ae7f2ecf7dd
f8effbf4fc140504ed0301e1f3ea05f1
fb000002f4f60c06e7eefbf204f60503
05fbfb040003fb04efe609fff8f6f901
f9f2fc01f8f80a0501f810f6fcf8f4fd
03f207fffaf10e120b050af910000403
08fffb0405f104030a05050b160a0409
1708f5080aef070803030a0817f30a0d
14fefefb05f40204f7f60a0805f508ff
0ff3f6fbfd0f00f202f9fc07f8fd08fd
f8f3fcf50702fdfe02fdf70efbf600f1
08fafd0304fffe05fcf6fe13f7f0ffed
03f7fbfb12faf900f705fb12f5fe08ee
0af20cf506f901feee07fc0ffb00fceb
f1f40c07f1ee0008f71bf812e9f9fdf3
fcf1030e00f1fe05ed15fc1501020cfc
f6f30909fdf90003f1140511f5050b0c
e704040efcff0604051bfb01f80c0303
f4f3fffff5f6fd02fc07020dfefdfc01
f6f4f805ee0901fd101801f606f50310
fcfbf20403fefbf5fc0702effdeefb14
fbedfd0f03f3fcf50012fbff10f8010c
03070101ff03f8f70410eefc0efb0704
02f7f4010f0602fef809f703fbf406f6
f007fd08fd01ecfc020aedfc0af206f5
0103f70a10ff0b05fd12f4fffbe9f4e3
fa06e9030a0dfd01f707f60201ebfae6
f413e90dfb05fafd020d09e806effaf6
0a07e7110107f800f01102eef5f3fbf1
04f4f826f21df9f1e207f8ebf8ee08ea
faf0fa28fd13fbffe204f7e900060e03
08eef21d0503fd05ecff07f40206040a
00f9f6180101050bfbf910fef904fe03
10030703f7f8021301060d010909f901
0d020004f9f3fd06fe0302010f08f405
0406fd050201f8fc07070f090ef9faff
0f03f106fe0409fc0402011008f801fd
feffff0e050a03f6fefbff0a0ceffaef
fdfc0c080c0509eff6f4fd180ceaf8e7
0ff6fff80503f9f0ffe8f913ffeaf6ed
0ff9f80703f5f101f4f9030908e802ef
fff501fd0cfcfd08e3ff0011f5000af9
faee0112f8fdf503e7fd050df1f5f504
fdf5fb09fafe0503fef10502f4fd010c
f7ee0406f4fc0604f4f20408f503110e
eff407050403f605fcedf418f2070c01
02faf403f905f903f504060dfaf7160f
fd05fd0308fe0402f303fd0806fa0bff
0106fd0ffc10fef7edf80702fcff1202
0603f2110605fc03fef9f31402e7080d
01f9f32007040002ff06f9070ffe0112
09fcfe120d0cf3f9ef03f4000ef30200
0803f3100ffe00f1f706eeed07edf4fd
f910ec0a130b0304f413edf309e3f3ee
0114f2200c0f030ef507fff0fdf1fce7
fdfce416051000f8e909fbe307e8f4ea
f8ffe51bf80af6ffde11f4e6fff405f4
0cf8f71ef61402f7df10eee7fafffaf3
04e5fa2bfe10f1f4d60b0afd02f600f9
fdf8f21d03fb0800e60812f1f802f7fc
0cf5061bf805ff12020609fd000af70f
0a0301fcfffb0d0efd080b0a0804f311
14fd09f7ffef0800ff0505000bfb0206
12fafa060301fbfefc0afcfe13ff0210
06f5fb09ff020b07030b030603f6f604
0cf1001405050cfefb0005fd07e7f7f7
03f60414120305f9f7fd000009f003e7
f703f10e1418fdfefae1fc160fe905e0
05f1f70816fff303f3ea0313f8f1f6ee
02f9f21005fb09fbe5ec0710fbf6fdf7
02f6fe0801fe0906eedbf1fdeefaf8fc
ffe2f51907000609e7e7f90af10dfc0f
fce8f6130f00f309ebe1ed04fdfd0a10
f7ecf91a0c15f813f8df0003faf3050d
03fcfd160f080bfff8e2fcfc04fa0c06
ff0704ff0f0cfa05eedbf70903ff0f06
fa08fd0bfe0bfdf6edf3f9fc0c000915
05f8fc19020c0d04fdfcfa0506fa1812
f509f70e17ff0bf6eefbfbf908e80711
0118fc1c0d0eff00ef0b010207f8fafa
090afa1c1d0dfef40213fbfcfcf0faeb
f90cee2611160cfeee14f3f2fedff3f4
f507ed2b09000208e714edea01f5f4ef
f400e72502140affe507f6e30cf1f8eb
f603f929ee10faf2d012fbe4fafe0bf7
0a00f12e0103fff3dc17f3fceef7f6f4
fdf7ff240000020bef1c04fff104f0f8
00f2f319f906000ff210130404fcf905
0ef4fa0af7fdfc0af50412070703ee00
15f8060702f00c0bfb07fb0a02000114
1104faf5f9f00712fa06f7071008ff13
04f9090dfe05000c0a090cfd0f01fb0a
06fc040c050601090102f8fc1701f6fa
fd09050a120605f4f60800fe08f00701
04f9fc0b041c04f7ebf8f3f60ef5fbed
f301ed00ff0bfdf9edf301f2fdf5f9e8
08fb00120b0b0df6f4ed040204edf5fa
f8fff302fb1104faece7fb07f2ef02f2
06ef000f05fc06ffe9eaf5f7f5f9f60b
f6e8ea07f70701fae5e302f4ebf20404
f3e9f109081109feeee3f309f3f60a09
fd01f3131006fbffe7def6fb01fd0b11
f3f6f81d020a070000eef2f800fb1600
fbf0f909080400f2eff1000401f6090d
f8f4f21c100bfe06f5f4faf913ef0e0f
fefb0513150803f6effdf90a08f00311
f700ee18100509f8e80400f608f60701
fc09ee221f0a04f8eb0406f914fbfc02
020ede250a0f02ebe813f6dffff6fffc
f7fef82c160c00f2e90f06ef00f6faf3
fb06ed2a0c1cf3f5db1cfde205fdf2de
fc06f725f413f709df1afdef00fbfdee
f200f6300921f5efe518f3ed04f801f1
f9ebf6250d0702fff31bf5f90101fdf6
faed051af8faff07fa1a04feff00f5ff
03f3040e0bfc0507010712f7fffff60c
13fe03000900fd12fefcfdfc0a0cf10a
0cfefbfdf8fa020506fdf80208f90007
0cfd03f4ffff0c05000dff0a09030510
03fdfa0afa000b07fe0d06ff0700000a
05000508fbf90b0f0e04f70908f70800
00fc0307050f0ef6060dfe060bf705fe
f701011206100207fc0b020003f5f5fd
02f8f213021f0913f8f7fdedfce9edf9
f7030b1e1310fe04eef7f5fbf8f6eef3
04fd01030c18f7fee8e4f6f1eff0f308
f209fb0f000b06f9f3f8f8f9fef80005
fbf40008fc11ed02ddf403fdf8f3f605
00f60f0e0715020beef3f50c01f6fa16
fdf60509000efaf7e4f501fff5f2ff04
ff03f7090009f507f4fcf7f4f6fa0cfe
fdf3ed170e0d01eff6f3fceef6ea08fc
fef8f62306130706ea02f1f1f9fcf312
ff0ded130e0cf1f7e80501ee08fff508
060ff21a0b1502f7ed0ff9f30bfcfaf7
010dde250909f9eaeb0ffbe903f801f9
0210e91a111c07ecf30af4dd0ceee7f5
05fcf92e1711f4e8f10702ef08f7e4eb
0002f536140e02ece112f0e0fefeffe3
f6fa032a0e14ecfde415fcf3060cfae8
00f101310a1600fee918f2f30800f303
f5f90a20050703ecf31c08030611edfa
0cf1fd1b0ef5070f070cf9f40703f20f
fdf6030efb040911fc060c090900fe06
00fa0303f5fb0a1704ffff0004050202
1205fcf609ff050b0a01f8fb0e000107
11fe01f5faee000404fc02000f080a07
12fafc0801f0090d0a01f80111fb0702
060501fa06f3fd10000806031405fcfd
05faf70aff0afd0c050d0e050bf3f500
010504040b090a0ffe0dfd070ffcf8ef
0106fb1209210a1c000ef7000104f5f6
fbfb0f111525070bfe13010600f6eaf5
eefc120d1921f900edfbfbfbfde8f803
f5f515090b1afd03e80f02f60300f600
fbff0912051100fbec010ce3f2f2e8f9
effaf8150f21fd0afefdfcefeff0ecff
f007f6140a0ce9fffb08fcf504f0f313
020b030d0b12f1fcff0302e7fbecee0e
0405ec10151dedf7f30bfff9fdfdeb01
0608f81b1419fd04f705f7fcf8e9e50a
f601f41e1319f6fcf4fff3edf5f8ee14
fb0ae4161118f106ec09fff0f6f3e618
03fbf120112303f1f5fffbf6fb04ed07
0b08f3131118f6f6ee18ffe805f8e109
0107f8361515f1f5ee1006e207f6ecfa
000dea311d200603e411ffee11f4feec
01f6fe25030bf5fffb13f7f00701f501
fff6021f0b0af601021af1040101fe08
00f800160a0802f5fa0aff00ff00fc07
0607070b02f90d14f40d04fd0510f811
06f6fe0df902ff09fe100b06130cfa0d
0f0809f806f8fd0308fe090a01fc0012
01f90af505fa08120d0c0c02110ef610
10fb06f8fef513090a00060812030111
0409fff9fbfc1204000007f91309000e
150204fa04f60c0f0e0f0c0d05fdff0d
08f8fe03fefc03130a08ff0b10f4fe0b
04fbf9160b010614030b08fb0df7f605
f4f20b1516180407070afd0505f2fdff
f201fc110b28000bf31afe01fb03f007
fc030e12102dfa03ef1201f8fe08f707
fef5fc130b2eef0df215f60209fee701
f40106140b2af3f3f70a02f001f2ef09
02f30919072cf7fcff1100e2f9fcdfff
f502fc1d0329f1f1fc12fbf2fff7e311
05f1fa150c1ef6fafd12fcf8faf7de0b
02ef011af82cf1fbfe0a08fb00efe207
f80300100836fdf6fdff0907f6f5e012
05faee12052a08fc0c1201fef9f1eb1b
0afde812052e07ff000907f00304ed10
f0fdfa15052705f6fb01fffaf2fff612
fc0ff32b0e21fdfc0209ffedfd08e718
060aec280418f306fb1506fcfff1f805
0305f721070a0afcf914f4faf6fafaff
fb07021f10120408fa2102fd0c07eefd
0004fb1a0901fe06ff1704f80c0ffa07
0a0602fc04f7fe00060b05fb070d0100
09080afb0af4ff090a0e070a0414f60d
01f9fff808fefb150e0a0a081707060e
fffb02fd06f11009fc06f7ff0800fc0e
150907fafbf3100c0300f8040404070b
08fc0ef30af50b0b0103f6010403fd11
03f9ff010aef080102030bfb0706f60a
090a0afcfff90c05fb0908080504f911
0f0701fe0bf7ff0d0cff09fe16fc010f
1002071305fc0a18040a0d0a1303f400
fffd0a15f803f90b0f12000204fdff04
0801f90e0a190c1d0d160c0213f4fc0f
fdf60c100128ec0e021100f8fafdf206
0000fa11132ced05fd13fff50af6f603
f7fff91e0f2efcfd0521f8fc01faf401
e7f8f61ef71bf7080a1bfbe80cfce0f4
f2f3f4240517fc070118fff8fef1cff8
edfcf7200b22f20af40d04f4f903d509
ed00ef14fe2bf0fa030904f100f2d913
f701e518f521f6fe040df5eff4f9e103
f914f11c041ffb071517f6f7eff4ef0a
f509ea200423ff06100afdf1f701ea18
0001f6110324fc0f0707fd04fdf9e906
04140010ff18030b041501f3f4fbf507
0c11000b0d16fe09fd1b0205f6fdfd07
0f1100080711fe09f917fe05ff11f409
050cfefefdfd0121fa1b01fa0e0afd0a
04fc1004fcfaf509fa0f0600120bff07
0606fe01f8f3fc110213f90a170d0404
0a0b07f8faf200050012fdfd0a07010c
0e060b0503f3fd0b0c04fefd090ffd13
0afe020504ef000ffd0305fd0708fb0c
150200fbfef20e0efc0304010bf90716
0df80ffbf7f302120dfef7090efb0307
0ef8fbf8fef30806fb09000206fa0615
0308010408ef0e0d090ef80614fc0704
00fefb0801f5100f030ef80708010312
090bfb08fc030801fefe030214fff50a
0fff0c1109000006fd09fc0912f4fc11
0307fa1105fefc1e100b0e061205f90d
06040412060bff1f0e1200f50c00effe
f5f9f900fc13f2190d18fe010703f6fd
f9fc0d09f819fd130b1c07f81707edfe
f403fa0ef718f722fe1c05f308ffdfff
f4f90014f203f021102304eb1901edf3
f305040bf30cf520022efffe0900f3f8
f6f9ef06e406ee23082f01000c08f1ef
fd06f81be10ce9270e38fbfcfc0be9fb
ff11031df614fd1c091d0af5f50ae107
f2070912f90cfc25fe3408020c11f40a
031002faf803ef180120fd06030efb06
fa05fafc0101021df23009ff070aeffe
0a0f0005fdf90014fe1806f40015fafd
100609f8f6fb0018fe14f907120f0101
0c0b0001fefb02140216fc0a120ff404
0f0c0601fbf30a1afa1101051208fe03
fffafdf904fd070f0504fb0a030d0311
0f0a0c0300f40513fa06fa0b08ffff04
0605060105ff070302fe01fb0e00f710
0dfafff2f8fbff0d050af70108fd0513
0c080ff801f807ff0a00fa0a0afdf70b
050a0d13f50006110a020d00ff00fb0f
02fa160cfe0108030f060d0005f20a09
0101070bf7030007010117000cfafc0d
06070c14f9fb0a0c050c110004fbfa0f
0ffb0a110306060b060b050000050106
ff091212fb0802000cfd0d000df20700
0a0e060ffa02fe080ef709ff07f50a07
0c03090bfef9050505fc0aff07fb070c
0610110309fdf5fd000a08ff01f2fbfd
03fe080305f9000a15ff13ff06fe00fe
0a050502010cff0005020cff04fd0908
f8f9070906fdf20106f31cff020008fa
0402ff0dfd0dfefd00050dfffef9010b
fefc050ffa08f6f7000509ff0cff06f9
0a09fa14f904eff80bfd14fffa011106
fe04f90efa0601fd02f508fff90314fa
fcf7ff17f60af5020c011cfefe000d03
03f5ff0e050d010301f21bff10050603
0704fb0803fb020106f40eff06030805
10fe020b080ffe0dfcf80e0006fa0603
03f3090bf50df907fc0116001302000d
04050e06f7fff9000e090e0003fef702
0501120dfb05010d01ff07000e000110
0b0602ff000505090006070002f4fd05
fbfd0e1302fcfd031302160002010700
fb03120b0508020f0c0a0b00fefc0810
0d010513f60b0a1414fd0a0003f4070a
0a0510fff9ff06110a0b0c0003f8f70b
000a050006ff10131400110005f90b0b
010d0601fe0c010506040d00fff7f50f
08040a03f70107090f03080001fb010e
000e0c08f6fa0113010b0e000ef4fb0c
0d0d100409fcfe0f0dfe15000e02fe0b
060a0a10ff0cf40411fe0400faf90b0a
09110908060afa0712020f0007fcfd10
0a0afc12f6fdff0700f907ff09ff0611
0313fb02fffefe0d0cf5ff0007ff0f05
0e1600fd0004ee0208f605ff07f214fb
ff10fb00f5f5f1ee09fb090007f90f05
f519f800ff07eff70afb070005f41608
0705ef04f3f7ee0108ee0a000bf016f7
f800f705f2faedfa02f20a00fdfe16ed
fbfaea05fcf8e9fafcf413ff01fd0fe5
0c0fe31102fbe6fcf9fd04faf7eb21f3
02fff10cf8f5e5f6faf402fbf8f216f2
f8f6f70bf6faeefff9f80c0104011ffd
fef5f4fb01feeef9f6f915ff00060ff9
0503f9020501e9fc02fafdfb020602f1
fdfff2f70407f8f9fffe10fd010301f2
03f402fe070702fc07fc03000ef200f3
fef300fdff0406030b070f0012f5fbfa
fbf807f8fcfa000b0f020b000103fd04
ff000e01010d08fc07ff1400fdf10a06
feff0b01fc02fd0a0103080009f6f803
00f9050a06010f020a010c0006f3fd07
02050503fd0bfb0b0302150000f3fe04
0a021106fd0dff020907100007fef8fe
0704050ef8ff010e080c050005f80900
ff070d10fefc0a0a0a0c0900fef2f806
0aff15040100080d00f80c00fef304fe
020117060505031300f911000d040011
fd1201fefa08ff09100300fffb05fb06
fe0b0006fb0400000ffcfffdf4020f04
f81ffbfdf3feee0c070605fcf9ff030d
071003f5f9efe5070611f9fe09f30a02
f414f1f5f8f8f0fe0a08f9fffcf6170d
ef12ecf7fceed6ef18fa00fdfff41b09
f515edfdf9e9e3fb0610fcfdf8fa1d07
ea1cf2f603ebdbf10b0ffdfbf8f71ff6
ea1af50508ebdffb130b12fafdfa23fe
e50fdb04f5f3d5f0170015fbf5f20de9
f621d8f003f5e7f1060402fbf0f012f6
ef15efeefaf4d7f4010300fcf70114e9
fb12defb00e8effbf40808ff03fc11ee
ee09ecf700efdaf7f2fef9fe02070fe5
f8fde2f00ef7e1f100fceefc090a17f7
f2feecf505f0f604fefbfb010ff909f1
f5fcf7f1fff8f606fef40b0112fb02f9
09fd01f20afff50308ff040101fa06f9
fffe08fd0608f909fb0101ff0df8fffe
0b02160b0901f703fd0a110006010006
08fe0b0afe04070006ff0600fffef70a
060106fffc0303020d0717000706fc10
030c171001090c0d03f90d0004f9fe07
fffe0d0f0a070e02140c0c000500ff0f
07061204f50a010113f90b0006fffafe
0ffd0a1006fc0f0607020d00fef6ff0c
000f1112000904110d0b100008f0060d
13030708f6fefb1212000c000301080c
08090b0306f6ea170bf705ff05f60517
0f0d0906f500f50c08f8f8fff6fd0012
021605faf1fdf313f403fbfef3010e13
0012ebf9f8f2e70e0300e7fef3f8f817
f410e1f501f4e708ffffeffdf70504ff
eb11e5f0fce3e201110e03fdf7ff1000
e30bdce70cf4e4fe0f070afdfdfa06fb
e310e900faf5ddff120f0ffa02fc0b06
d204e6eff8eae202020c1af807060bf1
d50ce0f2f103d30504021cfaff0401ee
dc12ecfff6fddb04fa060efc030215e2
d50cf1faef00defef60900f712080feb
eb01def803f7dcf9080febf8ff1011ed
f10ae9e4fbfbf4050b16defb04080bed
fd11deee0e04ea0ff402ecff121012fa
fa0ddff70efcf00efbf0eb00020dfee8
fc03eef81bfaf80afbf5f8fe0e0908f0
f407f1f61302f607faf3090218fa00f0
07fdfd040c000002fcf71a0305fcfcfb
03f401f70dfffd0b0d06140110f90200
fffe100108060e0f11fb0a0009fe0100
07ff16fd0308fc080a0311ff0304fe01
0a0a05fe090bfe06100a0b0000fc0302
ff08150bfaf806080d070b00fdf8f60a
0a0a1202090903140c07140000f60400
040a0afff600fc1505060f0005030412
0504160801fbf9100a030900fcfb050a
100c0d0cf7f9fb0f0c0afcfffcfe080f
1505f90700fb00170b0c00fdffff0d12
101605fff5f6fe10f60ee603ecfd1112
080af6f7f6eaf618f506e105fe0b0b0c
0617defcf7f30218f70ddc05000ef903
f105e1f2f2e6fa15fa0af706f7080d0a
eb06d5e6f4ee020c070b0306fe0c0515
e2fed8ef04fc0208f8fe0903030f1618
dcf4e80405fbfd13fb0a10070a101307
e4f6f0f1060d041007150cfe0b0b1112
d4f9f0f200fcfa050e100900f90813ff
ddfede0208f9f70cfc10fd01050c1307
ef10dbfd0dfef8f9f7ffd4fffc0508e9
e8feee00fdffee06fb06cd000eff05f1
f101e900060cf405f7ffd603071206fa
f10cf2f515070609f510dc07090d14ea
0316ebf3080cf204fc00e503101500f4
0411f2ec1206ef0bf803f3fe110e08ea
fe0beef210f0f00bfbf407ff131012f6
0105feeb0c00ff01f4e9110206090ff1
fcfb10ee1809fb0003f61a0105fefff7
0a000b030afe0401fbf012ff0c00f305
f70415ff0afcfd0afffe17ff01f80605
0102160bfb040d0d05fd0d000bf8030c
0a00060104fefe130c080e0006010408
1104141106ff090f08fd0d0001fdff10
0efc080ff70107100cfb06ff0703f80a
12090506f5f800110c0c07ff01fffe1c
11030704fce80b19fcfcee01fc050f1b
0cfef409f9f70014000ff200f70a0816
1103f804ecf00e18ed00e505fa101217
120feaf6f3fdf812ec12d906f8070b08
19f9e5f0ebed0c14e40de408ed0b0c0c
07ead3ebfeee0709f209fe09f61f0c16
08fbdfebf7f6010df3f90f08fc1c1a20
f8f8e1f601011408f4fb090feb1a1a0c
f3e9ef01fafe1a0d0210090df11b150b
e900ed050afb0904f8021407fb110c0e
faefeefafef209fc030e090003062007
f9f4e3f602fb0c0ced14e3020a0410fd
f905eef906f91014ef0cc901080012f8
f803f0ed12091300f512bb00fd1716f2
fe04f9f314030f03ef08b701070c0ef4
07fff9ff0c0e1902030fd405071312e5
f810f7eb0305000cf00af802140914ec
f60509fb05f80803f71104060f0a05e2
0016fcf310fdf80a01fa08010d0f12ef
0606fdf90f00fe07edfd18fe0a1b06ee
fc120af11a0a02f6fbf61e00120b06fa
ff0e09f1140d0607feef1efe060df601
f20511ff0c12fc1a09f311ff0bfcf4fc
ff040afcfafe04ff08030800fefafa0a
10060b0c090a0c0e04f90a0005ffff07
08050b0400020e130b020a000a07020b
110cfd11ff00011011030dfe01f5fa15
17fc0809f1fb0510120803fcf5f9031f
16fdfa04f8f0fe0ffc11ef00f4f7081a
26ffecf9f1effa10f017f100fcfefd17
30fbe1fcecee01fcee09df04fb0bfb1c
1905e7f200ebfbffee08ed08f30e0014
27f7d8f7f5e80705e401e10ef00dfa0d
25f5dce0f7fd0a02e800070fe81c0808
0fede6f8fdf5070701ff1308ff060a0b
10efe9f80701061309031807fc17180b
02fff7fe0afa0d0a0502090af0150f1a
08fce6080deb09040a0f0301ea051806
f7f9ebf116f20d0cff0906ffea0f1811
fa06f2fd0cf10d09f80ee3fdf6112000
01fff10902fb10060112bff9fc0931f4
0407f4f40ded1103fd0fc1f7f00f12f1
fbf600f4000400fff700c9f5f11e15f0
f60107f708f70df4ee09e9f9f41506e1
f404faf40cf50dfdf00ef5f9070004d4
fb0503ef0df00708fa0600fffc0c07e0
fcf808fe0cf00508ef0108fe090b08d3
fb1c11ec110201fef4fb16f8080f0de0
ed1706e91c03fbfcefe807fb0705feef
f60706f22201f90504f420ff0902f006
ff0518fd130a0005fbf011fe1601ef06
06050e05fd050d010af60c000cf6fd06
08040b07fa0c0d0710ff0f00fcf6fc0d
fe0f0705fdfbfd0d09080e000703f40c
17fffa07fef11100fe0404fcf8070015
25070506eff5fc02080bfffbfdfa0119
21fbea0704edfc0cf504ec01fd0be613
3308f0f6f3f21104fa0ef201010df60e
2103d9eceaf406fae413de05f001e30a
2dfbde02f2ea0cfce415d60bf90bf916
2c00d7eef7f10103d413f10df00df10f
1cf2daf909f7f6f9ea050307fd100409
24f4ecf708f2ff0701050404fa10000b
2400f9fdfffa010200040801fe14080e
18fdeffc0ae5060d0a111902fb1b0619
130402fd12eb041504000afafe0f010d
0c03fbfd0bf712060b01fcf8f20e0c1d
07f8fefd15f0020bf705cff8e9171011
f808faf908f70b00f109b1f2f917260b
fe000804fdf1fd11f90fb4f6ed0620ee
f1ff07f507f80207e409d9f3fb1718f0
fced08f303eaf803e810f7eff00807df
f3f907f205f9fd00e51103eef0110be8
f30008eb0ef9fd02f3050ef5f20ef9e6
0c0f06f215fb0af3e30216f5f40505d5
fe1808fe0a030200eafe12f90208feea
061a13ed17f90611e9f618fe0a0cfaea
061003eb1d0a0a1501f922ff06fdf0f6
00fd14f210ff07fc00f71aff09feeff8
05020d0911fa0b060bf609000f05ff0a
05fe0608090405020a0018000b060207
030607010200ff0502f8100007f90209
190f0501f7fd080f060a10fef606ff06
23f7f404f3f6fd020104f5fff104f018
2aefeef603ee03ffff1aef00fd0aeb11
28fbebf4f6f31509fa23f104fa08e8fb
1700d5f4fced0808f31eeb0efd00f008
20f6dbfafded190bf10eec0f070eeef9
25f6e0f405fbff0dd804ff09fb16e1fe
21f3f2f312fdfc07db06fa06031df110
2fe8f2041605f00d020813fcfa0ddf08
1ef0f1000dfbf90f0a0411faf416d90a
29fafcfdf8f1fd01120c12fbfe06c907
2bf9f9090aedf7051c0e23fdf317c318
13f3ef0600f6fa081610f7f7f60ccf1b
0b00fdfaf2f508040a08d5f8f00fee1b
05fc0dfd09fefb05fe00bafff510010f
08f9f9eef0ee0006e901caf9f7090ff8
0c080c03fdf60312dc12fef5f30014f4
00080cfcfdfdfa0ad90a0aebfcff04e1
f8fd0701f8fe010ceb0f1de8ed1102da
0b02fef20bee0509ee0a1cf2ecfa00de
fd070c0203fffe0ee10d18fa03ff02d4
050c00f8fdfa0801e6fd0bfa04ff05dc
0c0afff611f70900fb040b000dfb01e9
040b06f411ff07fefdf51e01140602ec
000912eb10feff0503f71c020bfff3fe
f7071af413fe07070afe0e011407070e
0e0b0805fdf8ff071300060007fd0102
01080e0b03f6001408001101fc03f912
1704fcf6f9ed04110bfcfdfef20af306
1cf3fc03f8ec0603060b0101fd09e80c
15f2e9fb03f10d11000ef102f6fdd1f6
1de5daff06e91215e708e90bfdffd701
15f5cff5f7e6090df712e8100109ddfd
13f4cef704f20df8f606e30b140dc401
16eedf090afc0900e904fa090c10c406
26e2f3f908f9f2fdee13fdff120cbd00
1ce20502fffcff08010b0ef3030eacfb
31e405050cf6f0f9101106fdeb17a611
1decf6f205f2fb08060926fdf60ca011
19fdeff6f6edf60c1e051900fe04b00e
15e7eefff800f5132907fefe0cf4c11d
0afaebefedf6f60a040dc001f8f3e818
04fdfaf3fcfff205f501b107f405030f
fefafefa08f1040af005e003f7061108
02fbf5fff0f7f20ae90608fdf804fdf6
f5fdf6fff6f1010ee80015f5f00114e9
0400f107fe05fc02eb0c0ef2fd06fec6
f6f30e0603f1050add071af702f902da
fcf2050414fe0a01f00c06f80dfcf9e2
0c060b0606f71cf0f003fafcf8f8ffd4
06ff0df325f40d0ef70718fe01f505ea
0a0e13f923f61cf9f2f30e021103f6fa
040418ec13050e0000fe0b010df400f7
0f031800030110fc08f51d010900f80a
11f9140ef807fc0f01000700fef80713
0104fd000602030303ff03ff01fcf911
0cf6f8fd07ea0306110106fdfe03f8fe
f9eef6f607eb0a08f80bfcfef6fadffc
ffe2e2f903e6fa0cfe08f9000503d9f6
02ede30805ea0e05f104ed0b01fbc9fc
00f5c6eef8e71009f204f80f0b06bcfd
04e5bf070ef315f7f9fbe70a00feacf8
faeaf3ff0dfefc0bed0800030c04ace8
fdddfa0305f60d07ecfcef000b10b2ef
06d80ffe08f3fe0bf20cf6f502ffa9f5
04e3140206faf3fb0d150ff50206aefb
ecf203fdece7e708090018fdf8eac70e
f5e4ebf8f0dffa04280918fc00dcc714
f0ebeef9f2e9f80c320bf00004d5d11f
f5e4e7fbfff1fd10170cb20701ddf120
f4eef6f207e6ef04fa09cf0effeb0016
08f7eef210f7f10ae807f00bfffe0c1a
f5f6f7fa0f00fd07d9010bfffaf106fe
0105ef0506f9ff11e8fc18ff02f703d9
f6f6fefb05000505e4f90bfa06f8fac4
faf902fe15ff130fdbfd09fb0be6f4c6
f8f9f20319f6080dea0406f803fbffce
0409f4ff25f01308ed0afcf8fcf5f8e4
050e0def19ea1d0af10905fe13f907e5
0b0810ec2ee71509fcf9020104000af4
01120ee41afe141007f30301fef50009
020c1df70bf70b090ef30cfe1105f803
ff020d0ef5001012120309ff00f8f811
f9fdfe10f9f20d01090001fef7f2fe0b
010002fcf8f009f6061007fffe04ec0b
eaf2f0f3fce7fffb0004f6fc02eeddf4
ebe8e106fce405fa0006ef030df0cff5
ede4df0406ea0f030afcf50605e9c3fc
f8edc6f8f8f00e0b00f8f4160200bcf2
ede1dc0502fd1309f7fcf30f0f07c2fa
dbe502fff0020e0fedfcfd0c0effc6f1
d8fa04fffc120a00e80603fe0cfac9f3
daf81ff6fefb0003eefa03f9f7e2e4f3
c9e81afbf900f8120afb0ef801dcf2f5
c4f10ffafae5ee1712082efcf8c5f601
caf0f6e9fce7080b1d0c1bfe00c40111
e0f2eef90ed700121209ec0305c1ea23
dfe5f8f00feaf20a040fd5040be8f321
f8effefc1be2f408f20bd80a0eebf823
feddf8fb13e4f112d705fa01fee90210
f2f2f80418f20216df070cfe07ef07f5
f7f3f4020ff60b09e80b03fa0efaf4c5
f0edfb0610f8000ddaf80cfc0af3fcc8
edfafe0908ff1809da07fdf804f300be
04fbeb0217f81d19e80708f611f4fcd2
010309fa2402150feefc01f60afcfdec
07120bfd30ec1c08ff05fbfc03f4fdf2
fb0415e82deb11ff0601f4fefcef0a04
fe130bec22f40c020cf1090008fb0204
fffc18f409fc071100f812fe0bf90401
0908130905fbfd060bfa10000b060111
fb03100200fb0c02030700ff08040103
000000fcfef2130b11080dfd06fdf610
dbf4ed0005eeff01fc0af4fa10ebdaf6
e002edf206e3180403effffc01e6def4
e0fac80b0bf2040b07faf20207e3cbeb
dcfbd8f808051301f8f9fe1407e6daf8
ddfde507f90e1114fff4fe1302f6ebec
cbf6fffbfe050516f8f0010e0cfbfaf2
c30515fef30917feeaf5fd0500eb09ef
b30010ff0209020cfbf304ff0ada10f9
bc0c28f5f7f604170af106f8f6d221f6
ce0717ecfdf4f61502fb240207bc1e06
dc1014f2ffe10e101f111afd0bca070c
ecfe0beb0dd2fd0c0f1202fcfdce071f
f0f8f4f605d40f04050fd90519e20616
f6fbf314f9dc090df30bf6000ae01117
fbf3fb0bfae00f05da0204fa01eb0803
f9fc00080a00fc12e20512f60eecf3e8
f4f9040b0cf81107de021bf406f1f4bf
faeffefefcfc130de30401f30eecffb1
0bf7fd1001010e1ce10003f11de005c9
120b050301021c09f70cebf212ee00d3
070f0ffb13f8220ef803f7f2f7f203ec
0e0f08ec20f726120a0bf7f7fff7f2fd
041216e425f3150107f5f0ffeef50506
000608eb20eefc05fbf7fa0006f10203
0e0e04f70b06030412fa14ff08030912
fa0412000904031206080f00fa03ff04
f7fffb0cf5ef090a12090dff09f4fa07
ec0afaf9f7ec00030afc0efef7f6eb09
d8fbfff70df4fefafef803fc07f3e5f6
cd00f10207f404eb02eafcfd0fe4dd01
cb00ddfc05fa14fa08e7ee0706dfeeff
be06d802f9020d03f2f7f61212dcfffb
c30deb0205fd1408faf6f41412ed04f9
b01a010efa111b0ce7faf10a03f617f7
bc0b0df3fa0e1611e9fbf50716e713fb
d614120105000a15f6ff0c03fbc71a09
d1111eee090b080b080019040ece1006
f31a20ed0109110c08fc1c020ac9150e
fa1c17ebf2fc0121151917fcf3dc0f0f
041d0deff6ee0d0d1203f2fb09dd0d1a
050b031800ec06080314f90112e51a19
0506f013e9fb03ffe403020118e21102
fbeff51de0f90117d41707fb0adc00ef
0b01ff15dbf1ff0de40c16f40ce708da
02001118f410fe09ee0f0fec10e807c0
04fe080efe061713f70600ed04e0fdc8
0cfd012106050e14f910f9f40beafddf
10fe0a100002171bf105f1f70ee3ffe0
18100b1b14fa010f080dfdf8f9f8ff01
030c0603110007fbfb08f3fafcf0ee02
1a0903ed1df109fb040504fef105fe06
131001f30e06f9ff110602fefcfafbfd
04120e00fd04030b0bff10fff9fe080e
050e0608f7020d0c10f714000905fb04
000c0b0afaf5fdfb0d010efe00f00513
f706fd01fbedfbf10f060dff03fef6fd
da06f8fe0cee00f2fffd02fe0df7feef
c910f2ff05f2f5e6fdf5fdfffef0f7f0
c107eaf50d00ffe7f0e2fa0a10f703fb
c314f8f9fd0b0edef5f6fd0c0ee00bf3
b115f906f1fc02fceff0020e0bf30f03
d01d0400f90115f6ec0008080be10d00
da1e0afe0bf80a0fe8f9090b09e4060c
ec160903021a1813fc06070b0be6020d
0b1a16f00d1d241808060e0408d30102
011d1ffc041b0e1e02fd10f9f9e2f6ff
07241008ef1303291f0d1af6f5fb0413
0b250303f8050e15060ef50003f3091e
0712fc17e2100d0dfc16f90210ea0311
070b0128ed0d060be70b080307e504f6
060b0116d3011016dd020efa0ae8feee
09fb0110d8f70f0ed9050ff200e7ffca
fd060611ee0fff0ee90808f313e2fed5
04f81520f90e0110eff402f109e908db
02ff0f0ffc0cfc0ff10b09f40ceafaef
1d0506150801fc0f000ffaf8fff1fb04
120c152205fdf809fa0406faf8f00314
0a0f0ffc08f40709fe0df6fce900f904
0b11ff0a17edeef9010704fcf603080f
0b1dfc0e0c0bee0704ff1300f70b0cff
060e0e05f50400ff020412fff9fc100b
001305fefc080605020507000a05010c
f409ff09f903040803050efef5f80600
eb0509060d00fdf500f906fdf9f1fd05
d91d020506f7e7e607eb05fdfcf710fe
d112f8ed0905f9d900e10101fff60cf3
c622f0ee0c0af3c5f9e802030ff70d00
c617f2f9fc08f6c4f0f4f80504e31505
ca2301eff60605c5f209070a0ef210fa
e00f000901f30ec7ea05020bfffa100c
f90f07f4030e1cd0fa01fc0d17f20007
090d01000b141adefd09050a06f0ff02
0e1814edff2617effe0c12090cf30209
08080bf6f3271003090b10fefffef50d
0d200a0be7280d0e02110800fe06f801
031a0a1ffc16071a0416fb030801fa0d
03170622f40d0f0df80dfb00fef90f00
0a17f910e914120dd4ff000505f907e7
0a0e0317f305ff08d50a040003ecfcdf
07050413edfefd0dd1f201f2faeffbd7
050a0309ebf4f9fdd4fa11ef05f9f6d9
ff080a0cf8f6f4fde1ea15f502e302fb
0bff0d02f205f6eff6fb06f505f30101
100f1b0b030100fdfdfffdfcefeefb00
16090cfa0afcf4fc0b0f07fbf2f0fe17
011b080217eaf2f500f80dfde3f70703
001efa0618f3ea0600f603ffeffd1008
0629fa0209fbfd0609fa08fff004100e
040a0902000809fe0efb0dfef8070909
080e110704ff010d10021100fdf40412
fe0300fb07ff120100f80efe08f50f07
f61b050702f603edfbf4feff09f71305
e124f8ff02f6efdffcf7fafc03fc05fb
e711f8fb1000e5c6f9f004fdf7f910f5
dd12f7fd1401f9b6f3fbfc0000f50808
db1700ff0ffdf4a7edf4f9050dff15fe
f71807fa0807f2a6eef0fd0808070ef8
0f0cf9e5f406f095f907040913080303
050c09e9f5060198f102070912fbfdfd
040e0cf003190e9bf90d010c0bf6fd05
010a0708e81604b6020b080309fdff03
1afb0f07ee1b12c00b0e0c010ff8f800
1315060df0291edbfd0607fe03f2f30f
0d110515021d0ce7f80feefdf7f307fc
010cfe1602150ff2edfeff00fb0500e8
03180b160b030de7e00104fffef4fada
08060b120203fef0cf0308fd07effbcd
0b10fc12ebfdf3ecd1f1fcf4fff9fce0
0a040908eaf8e5ecdfec1cee0ffbf9ee
04140908e6edd8efefea11f1fde80dfa
09020606f201f4f2e5f005f6f9f10211
ff130604f2ebf0fff5f91200f2e5fb0a
0d1c06fb01f1edebfcf50701ebf1110a
fd1b00ff09f2f9effefd0afee40108ff
011606f210feedfb0cf50d00e8001300
fd2afef8f6fd04ff10f411fcf0001217
0a0406fdf90705090afe0f00f904090e
0808110ef605041304fd050003f20208
f41300fbf70203fe07fd08fffdfd0e03
f415fdf8fefdf5fe05f708fd07ff0806
e81bf1f70aedfad1fd00f8fefd0e0aec
ed0ff4f60700ebbffcf8fbfde80e0c05
e209f80206fde5bde107ee01e9fdfc0c
f20cfded0806d7bce4faf306f809fefd
1a0106e3fb0ee3a9f5fe02050f09fef6
060d0ce80915df9ef4040c0501120900
0d10fde4fa0bd89bf400080511fcff03
1207ffedf212eda7fbf604040a04fcfb
07f9fcfbf020fda206fe0c04fcfaf008
0eff0a1aea0cfda902f7060307eae8fe
0e030d22e3100dab09010501fff6f2f2
0109fe1201160bc1eff806fefe08f200
fe18011905fefcc1d6fafffeff02f9f8
0205010d0709f5d6dbef0bfd05f0f8df
fd0e051001fef9dfdcf200f706fef2e6
100f0b0dfdf8f5e8d7f5f5fd0cf408fe
02fffffde6f2e5eed1e805000afbfc0e
0dfcf606e2f8f1f2efef00f8f7eff91d
fbf5eefaf1ffe8fdecf103f50cf1f50f
f50410ef0208eff601f4fd05eef60518
03fbfbfb00f7eff105ee1107e3f41402
f90e0bf00cfcef000bf70502effe11f9
081cf3f8f900fe1006ff17fee2040c04
0308fa02fb01f609130200fbf6091612
0c11130ffb0a010816ff0c000a040306
fd0b08ff07060e0bfff91200fafef909
0705fd0506f60309ff0a110000f412fd
f10c0006f9fd04fefff60dff000b0ef5
e5fffcf9fbf908dff5fdf6feec0c03eb
e10cfbfe0c05f1d3f9fdf2fef51708f3
f609fbeafe07e8e5fa08e9fbec0efcfb
0404f3e8f5fadfe1f7f9e805f60508f3
181104e50d09e3d2eaea08ff04ff08f8
1112fdd00b17e2dbfaee0303050d11fe
0a0308e60618e5cceb02fa03f60213f8
05f20204000ce7d1ecfcfd01fd000300
fbf90404030ff2c6f7000c06f9f1fcfa
02e91326de05efc408ff0100f6eaf3f4
09f70019f00eedc307f504fdfef4eff8
0bf90a16f80e04d7f4f7f9fff200eff0
09f0fc0b050901d5d8e3fb0001fdeff6
fafdf915180dfcdcd7edf3f608effae6
edf9fe0c10fffbedddfff6f6fbf900ff
f5f8f809f10afce6e4e1f101fe04f4ff
edf3fb00eafff7eddbeaf5090800fc12
0500f0f7e3f2f6f7e2ed00ff04fc0b1b
f5f803f0e5fbf9f6f4e8fa03faf20811
f3ee04ede602f4f4f2f5fc06e0f81115
f1f80e00f3ffff01faf80406d3f61013
fe0205fef20103f906f4ff01ecf7030f
0710f5fc0302010009f805fff00f10f7
02070901fefb01f60f0201ff010d1808
12060505f80a010301000200080c0913
fc000811fa090c0a05fb080007fa0103
0913f60df0010e070c0b040103011509
0c07fcf302fbfcfe08030001fe1404fa
0405fef9090404effff4fd00f60903fe
fcfa01e7ff0a0af1fffe01fef525fbf6
f40104e5f20701fffef4f5f8ed1407f8
08f2fee70707e601f8f3f2f8fa18070a
13fff6dff90bee04f0fff0fd0906fa00
1307fbebf617e918fef108fe09100bfe
f5f904e6011ce709f8fb00fcf8130003
faecfcf41319f507fdee07fcff0bfa02
fde4030afd09f50004f009fafd0df400
fee21628f504e7e504f704f50108f4f6
feed1412fb16f6e1f8fd07f90103defe
f9dcfb08050cf9e4e6ea030000feefed
00dcfe000c0600e2e8fcfffbf4f6f6ed
04d6fc040b120de4eef1fafa0402ecf7
f0f4f90e000e04dfe9f4f5fd07f907fb
f9fbf609f4f9f8efeff1e301f106fc09
f2f4edf1edfdf8f0e3dcde0604fb0a05
e9f0ebf9dafbf5e4ece5e6fffdfaf70b
e8f2fafbe40df3f8e1e4ef03f303fd02
eaedefecf50efafbf3e80402e3fc0709
e602f4ed01fcfef5f6f7f304dd130412
00fcfcf3001106f80309f002e8150e0b
031403f9f3000100fef50701f3081012
0dfd10f8f70bfdfc1206f8fff00d040f
08080400ffff01fd03ff0100fa0a0403
10000311fafd0203ff020300faf30f06
ff05fa0802fe0e040ffb08000b0e02fd
06fef400fc04081103f00b0001171203
0afefdeef302fd001700f900f014f9ff
fef003ebfe0001110ffef1fafd0ff8ee
fbe600edfb0b021809f8faf5ef05010b
fde200e4f7f90512fa0ae9f4eb0f0903
10eaf6f101fffd27f8f9ecf6ed19f6fb
01eff5e811f7ee1aeef403fbf119fa01
07ec08f80f10f915fd03f8f0f517f107
f6e903f20306f91ff9f80df00712f314
04e5ff090ffdf412eff503f1f509fb08
04d3070efd02f801f2f3fef30300ebfd
03cf0f15fef9f906edfffef8fe02ebf1
f6d1f20eff1103eafa0efc04f7fef4f2
f2c8f00d0a1302f6f4f7f5ff0207f200
04d5f3081505fff4f0fef3fdff14ffee
f2d8ee03040efcef01fff6fbfb03fef8
fadfeaeef3040ae8f1f8eb01f708f001
f8e9edf5defdfbf3f1f1f304f40303ef
f3e6fdf6d309f5fae1e9e2ffe80804ff
edf9ed07ed0adef1e2f3f807ea140602
e801f3f0e7fdf209f5edff04d812050c
f80101f3010000f1fbf6ee06d4130b13
f001f2eef513070a05fbf904e3190500
0cfe04ef050e07f8fdfaf302f906100d
090911f400f7020309faf90004080b15
06ff09fb05fff7fd0507100000fa070f
0fff030701f9fd0d030a1400fef7040d
0801fc0ff901fd02060511fffc0bfefa
12f60101fa02070508f60f00070d0104
140509f7f8021403fb0604fef50aff0c
12fdfde4f8070f0710fd00fbf204f900
04edfedd00fd070f08fd05f3ee08fb08
02d50be7fc031b1504fffdf7e40cfc0c
01e3f9ea0e030d1ffafdfafae606fd08
00ddfbec01f10516ff09f7fe040efc0b
fcdd00ef0ff70a11faf900f10705f307
05d6f9f60301ff1ef4f6fdeffa1afefe
efe30b030eff0c0ff8fd09f4090fec01
f2d1f9fe01fc0304f807f9f71413fbf1
f7cff8f80800f6fbef00f6fd0710ecfe
fedc00fd060502faf21104070100f2f4
03d6fdfe001405f0f20bfd020e06f5ef
07d2f40f021107eef8f10dfd000ef3fe
ffd606f9ef0ffbe801020800fa04f8fe
faedf8fce40a08e4f7f6f9070010fdf2
fde3f4fdd404fded01efff03ec14faea
fceeea03da09e6ebf8f9e5fef603fef9
edeaedfbdc02e4f2f3e4f803da130702
e6eefbf7f1fffb01f1f3f302ed0f0107
f2f002faf20ffbfb07ecea05e208ff01
06fc08edfa0504fa0aeff505e2170cfe
02f90df800fe030305eef004ed140d03
0600130007fef8fd0704fb01f3030a07
0d080e04f50502021005020006050211
fc010705fb05040c0c0506000ef30b01
0905fb0d00f90f1013fd0400ff0a0c05
0c010509fffd10060c010d000a03fdfb
0ffcf1f6000804f306ff0101f9fb0ef9
0eebf5f8f9fa0d01fb0d05fbf114060d
ffdd0ae8f802120cfd10fdf5ea07fa06
11d408f5faf5090efd0905f7fb0d0202
0fce03f60cf50a1605fcfbfaf3040300
f4cd08ee07fe0e0f0b02edfdf908fe0d
0ac10dfc0100020ae608f4f60216f4fe
eecf05f206f609f9f0fd01f4f50dfcf7
ffbb080416fa0700ecf5fdf4fd0afcf7
fecc0cfe0afe06f8f9f9fbfe1405f6f6
f9d1fe080a040500fdfb02050e01eff9
03d4f703faf6ff00f10bfa0c0308f1f2
00de04fdfe0412f6ff0a0f040206fbf1
03e1fcfef80305e7ef090f06f817fdec
fcdf00f4e90ff1f108effb06f8fff8ef
0cd800feea12faf70400080d0207f2f0
05e404ffe204fce3f6f6f205f10afae7
f0eef50ddb0eeaf7f2e7f701f40de7fa
faddeff6df0ddcf5f3ecfb03eb08fafd
e2d5fa04f513e4edf2e3ee05e605f2f7
fdf712fefe16f3f3fce7ec07f315fff5
fff313fff11306f2fdf7f606f916fd02
0afc0a06f400f50502f4f503f613fc0b
02fa0904fe0bfdf806f3090000fd0405
0e061602fb09020111010f00fb05fa0f
0a0c0f0e05000d090001100000ff0705
0f09050104fd020810f80800ff090810
0005f80200030102fff50b00fd0104fb
fef2f4f9f7fef8f603060600fb0c02fe
0dec03f3fbf211f80d1300fef50a0301
0de2f7ff07f6fc07fa09f6f8f30c090d
ffda01fdf305fd0df3fdf7fae7fdfe07
01cd0dfbfa0411fafa05faf9e00af70d
ffd204fa08fb0b05ff08f7fbf201fa04
f7c10af1090702fafe04f7faec07ea03
f5cc0d0b0ff101fef8fefbf2f2fe07ed
f9c611030df3fef9fc09f4fdf8fe06fb
05cdf8060700fcf800020801f7fdff01
09df090708fbf8f9f5090202f4f4f909
fad406060ff90cffed12fc03f60af1fa
08e0010b07fa12fe04150600fe0602ef
00e9050505f4f6e8fd0e0308fbfeeffa
0de40c05f116e8eefef10408ff09f9ef
01df01ffe801eaf50602f808fafaf8f6
06e80304cf0ce5ebf6ecfe06fdfafeec
fff3f407e91ad9e8efdc0701f40601f8
edd5f4f4ef09e1f4f9d8f602f50c01e6
fbe30001f60eecf4fae5fb01f202fdf0
f2eb19030108fdf207f7ee05f61506f4
09eb12fdf503ff07fdf2fa04f9030803
00040e06fef907071000f702030403fb
06f60a01fdfa09fd0103ff000bfbf7fe
0e0c11040501fc0506f907000efbf903
00071101fffa0b1309040a000f030909
02fa04fdf6fd0f050109110006fd0006
0e05080300020a10120a110001f8fd0f
04f70806f1f000fdfd070a00f807f70b
0b0400fdfffc070c00010100f0f7fc04
01edf2f800ff04ff000af1ffeffaff06
ffee00fd01f609f5fe0e00fced08f604
07dafc0305f303f3020b02fae80bfcf5
f0e8fa06fe01f3f40605fdfce4faf8f9
f1dcfefd07faf400f70afaf8f503f4fe
00e90401090608f9f805f0f9ef150df6
fde1080813fdff07fdfbfffef10ffeee
fde0080308f805fdfa030001e6ff12f9
02e608fe02f100f5fa16ed06e703090a
f8ef04fcfffb1706000ffb06f406fef9
08fa0df8fdff0afbfd12ff05f30dfa01
f7f30ffdfbfdf8f3f7fbfc09f70d02fb
f2ed0afc0205f7f7fefef30afb0bf8ea
02f3f406e805f2f700fdfe07f009fced
fee3f606f00ddfe7fde6fb07f5fd01f5
f0e5f408fc0debe1f7ceff03f906faeb
02e5f7f9f109dcf10ce8f100fe1303f8
f0f70209fc10e9f905f0f502f40ff8f3
04f60efdfe0603f511fe0303f5fa0afd
0af309fffb07fc0911020803fd0303fd
0b001b00f50105ff07fafd010102fbff
0f0d050d0608fbff000a04000ef90b0b
04fb1003030b0913050a12000af50800
0aff18fef8070f090ef8170001f9f802
fc050c0dfffc0a08080a0a00fdf2f803
0e02090b08040801130b020009fd0709
fcfaf7f7f4f30e06fe0c0e0003faff06
000309fc07f906fefb0ffe01fdf4f906
fa02080601ff10fb000f00fff4fb0b02
fef6f6fdfbff00ea100cf2feeeee0405
0bfef9ff0af513f4fa0d0500e80206fb
04ecfcfd070203f1ff07ff02f502fd00
fffd04f70fff11f1030ef2fff109f8f2
05f600fefdf918ecf906f500f9f90bf9
01f1050a041018ebf302f302f4000409
0dfc05ff07fe1cf30211f90ae7021301
fef60df4f6f11701070eec0ef4020bfd
fcfe05fe08fc0e000214ed07faf6f905
fbff170af8f114f7ff12ff05eefb0e00
edf7110c03f80cecfc13ff0ffcf807fb
eb0505f9fbfd0aee0815f50f01030304
fbeb0b07f607faf302f4e90a05fdfcf8
fcf80804f8fdf2e002fdf80302f803e7
faf503fb0002f5f007ecf706080505fa
f9f90309fd07fff80cedf6010100feff
fff412f6f6fdf8f9fe02ff02f5f5f6f2
04f21800f3fffd0a01fdf702fff30708
feff11fff80500fd120a06010a03f602
fcf713fd04fa0e0408030400f9010a04
fe0014ff04020d0c10ff0500fb04090a
fc00060907fa0d07060915000af90008
0dfb0305fcfc0808130412000bf10901
050b0ffdfd02fe1204ff1600fdf90008
04f90506fa0705ff12fc150000f90b12
ff07100df7f7050b0d0a0600fc04fb09
1200020af9f51407ff050a00f6f1000d
0406f701faf812060214fd00fafdf8fd
0af6fcfaf5fa0bf40714ff01ff000b0e
04f9f80bf8fb10f80c09ff02fc030505
f4f8f10b01fd1bf7000f09030af5050b
06f9fc01f30110e1fa0afc0600020cf9
01f6f900f7fd26e3030af90104fd0504
0304f2fbf70426ea010bf205fb0cf905
0602f102ff0115ee0b27f70cf001f201
fa09fb01030615ef0828e40b020ef70c
f40bff02ff061af10614e004f903020c
fd000b0cfbf40ced051cf00af8fd03fa
fe040b0404f413f10215ed14f8ff04f5
fa0310fe020406f0111af41108f601fc
0305140cfafeffea0801ea0bf9030bf0
03fc0107f3fb01eb040e0205fcfcf5f2
fb010f15f50405ec0b07f5050dfb00f1
01fb0c01f6fafefa0107f5040bf0070c
0c0406f9f8010bff03fcfb02fef6ff05
02030a09fe0905040309fc01fe050700
0ffa1b0908050b0e09fdfeff07fafd11
02f70b0103f7020d12fdff000df7070d
0b001409ff06fc0d0e07100009f7f5ff
0aff0b0e0009fe010ffe1000fdf70603
0e011607fc09030c05fa16000e010311
060d040507fe100b0e0b05000afa0703
0f09130201fffe0a0e00050000f8fd0a
06fd0c0205fb111202fa14000c05fd07
080205fe0306080e12f9080007fc0a06
fe0706000407ff060d02090101f7090a
1107fe0705f40afb0e08f80007f4fb0b
0dfefc0cf9fc13050a06f901fef6f50c
09f4f803f9fe17f60d0dff02fffd060b
0cf2ff0200020500080ef606fe0b0401
fffcf7ff09080df0011cee05f8fc0600
18f5fa06fcf115e50b0ded06f4fcf6fb
0ff5ed06f1f61af10212fe0ff5030111
02f8f308f3f314f30316ee0bf408f409
1202f50602fb0ced0917f406f0f7f700
10f50a1106f90efd0c2aea0606fef50c
09ff0418fd0608f61527f50b09fcf2fb
03f70309faf00a001821e907f501f60c
fb06070706f708fd0e0ef102f4f8f7f9
0bf50a00fa0003ff0d11f6fff8f9ff05
fe02001104f9fef61309fa0005fcf508
05010b0cf5f708f9080509020afcfa01
0b040401f5fb10fe0e0509010903fb09
fdf70710f7fc01090a050f010afafd07
0f090b0e030b10140afc030007fc0108
050b081304090c0a130407000d04f80b
0b030e1207fd0d13000b1000fef90b05
fb0d0309fdf8090115fd0d0005fdf504
130606fa0a0001f70bfa020d03fefa08
13fff808fc000401fdff0c000102f307
0eff0108fafdfef606f1130207fefd0f
12fafcfb0dfcf4f700040dff0d05f803
080708fb080a08fff7000512fe0ff70d
060905fefffd04fc03fb0002060b030c
06fb0d0a01fcfb0609020a0f0a0bfdfe
0d010ef8fb09fdf905030b0a0a020310
08fdfdff010c00fbfcf10909050ff605
0b0702f90606f9fb03fd040c1214000b
fc0804f8fc0ffdfbfe040a090711fc09
01fe0f050b08f5f6f2fa020b1819f20e
04fb07f808fcfe00f6fb04090817f206
fe070df705fd00feeffc02fe0610f502
f7fb050afe0203fbfbfcf8f80d0eef06
01020bf80b1107f4f1fd0300091afa0c
f90f0cfc05020601f3fcfc0a110eed07
0bfd0cfd03f70402fdf309fb0907fd03
06fcfcf7040cf201fb02050f1506fd0d
0303f9fc0d0b03f9f7f4000b1a0bf60b
0606fffcfe0508fb06f4fb03130900ff
fd0a04fe0906f600f5fe0c090f0df50b
ff0bff04fe0604f7f8ef0a051503f50b
0dfcf9fc000dfbf801f9060a0311fe07
020efe0cfafef9fbfd0112090c08f90f
0d07050b09fe04f508040b000110f90b
040107ff030ffafe08f20104fb060410
16fc0100fc07fff906f514050710f305
0b00050afa0503f7fff2100cfd06fb05
0c010cfe0a10fc0003ff0108fb03f603
05fcfefb0bfcf6fe04fe06010b010208
10fef701fe09fef8f80402110c0df209
0403fa04090a01f4fdf9130e090cfe05
0b02fd090709f6f3f7f704031412f90b
0b0a11090b0200f6f7050dfd05040210
02090b03fb0a03f201fbfa0715060209
f603150a030602fffd0803010a00f304
ef0a0d0306fe07f3f904fcf30e10eefa
fd0725fd08130cf8f0fcfff1010bf3fc
fd012ef805110ef3ec00f9fd07fff3fb
fc1129ff06150e01eaf6e7e70714fcfa
f6071af20f0f02ffe7f4f3ee110af4fc
fa061803ff0403fee8feecf51a0df405
f0081a0601ff0900ed02faeb0f0df800
ea0614f602ee03fef0feedfe1a03f601
eb090dfffa02f7faf8edf4f82515fbf7
fd0dff0106f9f6f5fafff8ff200601f3
fd040603fe050102faf3f9041703f5f7
ecf9140904f5f5fdfa0101f71c0afdfa
f5fc0afc03fdfcfe03f5ff001f02ef04
09fffd0a02f705f7fbf908fb19000307
0208fcfefd06fbf505f610041bf8f80c
0f02ff03fb02f4fe08f50bfd03070407
0503ff040a07f30008f0130afe06f306
0f010702fd07f8fb02f00307ff04020f
05fb06060d0e06fafcf70d0b09fff10a
07fb0c0b0cfff705fc01020eff10f008
090700050706030403ff0e09000000fd
0c07fd080a06f3fa00fe1212040efa00
0c0305fbfefff5f80001ff020212f60a
03070a03060c03fd0bfe030b0208f502
0eff07070807fd000701ff04ff05f70e
09fe1100fc0e0900040301070209fd04
070c12040b12fbf1fefef2f404030203
0b1419f705fe0f09fe00edf40500f206
00142afd0dfe0602f5f4e9f4fef1f5f6
00032af812fafdf7e7feebe602f7f802
051128ed02f60808eff4e9f2fcfee901
04061ff607fc1010e7ffeaf0fffffbfa
09020ef10906ff10ecfee5f901feed03
040312fc0e07090beef9d7fa0bfaf0f5
f2f610f809f80f04f2fbdaf90b0cfae9
f5f102f712020602e9f2ddf61003f6f8
f3f506030ef9090decf9ecf30e00feee
ebf8060c01f4f4fdf9f9e8ee180506f3
e60008fdfefefffef6eceff40f07f902
eff910fb00fffdf5edf104f11d05f700
fa040b04f8f800f7f8f505f1200d06f7
fefaf811fbf800fdf6e5f50719f60601
0aff09fd050c0000fff1060518f5f703
ff06f90a0afa06fbfdfdfd051803f701
130e06040409fb00f6ef1300110efa02
08feff08fc0f02f30a0210030409fb04
1408f908000001f1ffff0814fe0c030e
050206020c10f6f3faf106110705f10b
040402fcfdfb08ff07f70d0b0d04f20d
0bfb05010801fbf208fa0311080cfafb
0f0c0d02070f02fc05f91201fd04f40e
040a0bfc07fe03fcfefb07100d08ef10
0d0f16fffb0d01fcf9f801f5f907030c
0e0d14f0ff06f70501f3f2fa06000303
0f07280002ff020500f4f5ebecf3ff01
030627fe0e080efdf3f5f5e9f9f1fb05
020c17ee01f102fdf7fff5e6fef6f904
08031fee0ef60a13f2fbf9eaf2fdea07
0f0521e5f6fafb1bef05f3eafdf6ed02
10070deb00071711de07f7e1f20cf5fd
fcf70ef204091421e90deaddfd00fcfd
f2f6faedfaf80715db07e6ea0404f102
ffedf9e904000d0ee008e3ed000301f6
edf603fb0d041004e3f9ddf00e040aec
fcf408fb04f30710dffbda08fc1608fe
e5fef8fe08f7f614e0ffed03fefd0504
e0ef03fd01fb0406effbf0f305110108
dbf800fd0bf90402eceaedf222fc08fe
eaecff0c07f102fff8ebf4f71a0208fc
e1ed07f904f405fdf9eaf5041dfeff08
f8ee0801fbfafffc02eff5002c0a0706
03fe05f606f5f700faf701082800fef7
00050701090807f60500070b1404fb0a
0d0205fd04fffff905f30a0c0f0901fe
13fa0308fb0705f8fb000efefe05f503
01fbf8fa0408f5fbfbf204000708f60a
120a0008020703fb06fa14130f0e0202
0e0afe040d0b08f203fe08080f07fb09
0f0618080a11f900ff030306fd0803fa
140807f10714fd0208f70408f9f7f809
150f0df0fe0cfc04fffc0405f800ee09
0e0a1bf9070104f609f8f7f8fcf6f8f5
ff171afd0a0d01fc00000ae5f4f9f207
090415f20104fe1300ff0ae100f7ecf9
01f30fe2f509020cfc02feed07f3ea05
0bf415f605040bf9f10804e308fce2f2
0dee2e03f6ff040c0b03efee01faf306
fee526f6f9f11304050b01e0060ce5f5
12e511f6ff040204ff0dfcfcfb01f0f3
02e509ec070f030af701fafa0001f108
04d4fcedf907fcf7f603f6fd0f0ff901
0cd9faec0409fd00eef6e8fe08000801
03de02f0fefcfe05f8fae7f60711f8f8
eef0f3f409f90f05eb07f60912010cf9
f3e4030ef9fe08fcf101eaf219021cfd
deebff0ef9f60df201f1f0fe19001100
d3e80508f704050cf0eafcee21f609ff
d2ecfe09fef60200fbf0f3f2350500ff
f1ed0a06010207fbf9f6f50222f50efe
f9f80a0408060005fef6f6041ff208f5
01fb08020b07030308f8fa0c18fdf9fb
fefbf8040007f7f4fbfe0b0909040007
100b0c060c0204040af406fe080ef40e
0406fa030305fef106f20c0c01fefa0c
0e050cff0805f6fff9f20c0e020eff09
12fffef7f808fbfdfa00030102080003
160c0a090c0b03f3fbfe0b08fdfef6f3
0a030807fefc08ff09fc13fbfdebfcf6
0c0b16f70b0f090007040cf6fbf1fa06
081805f6fb0afbf201f608f1ffeffafb
01030ff60c11fd03fd050def07e5edfe
fcf20cf3060ced0dfdf20fdd01e7eff8
f6ebfdfdfbfeee0206f603d8f8efe102
05dd04f9f40fff0812fa01f00405e4f3
00e611fdfefbfb0814fd01e600fff7fa
08f00c13fc02000b0d03f8f008f6fefe
05e31408fef90d0c1608fdfc0f0709fc
03e711ecf5040b030e05f1fd0a090001
0ef8fff4fbfcfdf90700f9f60b03040f
0e0110f20ef902020efaeafa08000808
0af406f911fd0a0710f7f30a20000fff
03f1fbfef8fd01f10f0ae6ff19eb120b
eff3fd08f6fd03fd0705fcf327f70f04
e5f207faf00306fc05f5fef828f50f05
d0f5ff06f9f5fff7fb0b09f1230308f9
cfea0f02f0f8090203eff7eb1ff70ef4
e1eb0d07fdfb0202fbf905ee21060df2
e2ea060ef6f00008f4f7edf31df41003
f4ff030204070e0cfdfefb0213fbf8fe
fefafa01ff0205fa0204fefa0a0afafa
0df905060404fbfffcf7020a0002f907
030e0c0b090bf704080104090d02f60c
03fe03f90601f8f306f61503fe1100ff
0705040dfdff01f9feef120b0cf901fc
070e030b0207efecfbed0c05fb04f9f1
fe0415fd08f8f8f7fdea02fdfeec01f0
fa0bfb04f605ee0b0403fcf5e8f1eaf4
fb0cf70ef61204fb10fefdf2f1ec0105
f2faf703fc01fd0513f80af5f9e8ef04
00fce802fd06fa0e1ff003eefcfcf601
f9eaf713f603fb1221f311e7f9080101
fff6f415eaf7fb0420f60bf20b030fff
fcf300090407fdfc21020df9080b1704
f900081002f70704101706f7010b11f9
07fd10f7f600020a1e0e070004fd0f10
1304110306090aff1afc00011d040cf8
120e03f7fdf910fb17fcf60e10f50e0e
0e080df6000b01021af9ff1221f11003
131108f405ff01fd13fdf90820f6110d
0c090bf500fd15020bfbfafb29ef1507
fa07fa0700fe07f40ef8fcf118f21307
f0f00308fffb020906f3eff41be01c04
dde90614f40008f60602f3f904e70f0a
c8f8070400fffa0306ec04f213f92007
d4f7040d0afd0315fef2f6f600f911ed
dfed100807f30b021405e9f1f40417f8
fefefe0d04fd050a0e0204fdfcf8f804
03f805f510f305fafe03f90100fefcff
0cf5f8f90005fc00faf50901120f000b
0b00fa070d0dfcfbf80205050403ff04
07fc0d06fb1003f1fdf609100110f702
01150702f70df6f106fa10000ffdf203
100a0e050005f2f401fc100bff0205fe
f911f902fe00f6fd0cf90c01ffeef501
f301fa11f50df3fb080906f404faf7f5
ebf9ee1ef4fcf9f905f904f502f60bf7
f7f9d20ef6fffbfd15fb03f905e6f9f7
ecefd30ef509f1fb12ee02fa06f30efa
f2fae308f801fdfe1de901e606fa10f3
eb05df13f2f4f3fd16fdfff0fd040cef
f703de16f6f0f30f19f5fff602fd1302
fc16ef06fbfcff06280a0203f7fc11ff
0b17f706030c02f51d010c04f8fb14f6
092306ff020006051df50814fff42105
111c11f8f50904f71f00fa0df3f72f00
1521040a070a05f22101e907f6e7240a
15080efffdf210012108f102e8f22406
170f0afef7f90c001808fa0beee7270e
ff020f09fe0002fe18fbfd04d6f5200b
effaf90ffb0501fa0afefe04c8ef1606
e8ef100bf5fffd0315eaf2f4d6eb1705
c9f20e0e07f1fa1115f9f2f8c4eb0df9
d3f5051108f606080300f8fdc3f515fa
dffa0712f5e2011109ff0500ccf50ffb
e9f30bfdfdec091306fdfb08dff2fdf4
01fff8f80cf4fd02fc0a0507ff05fb08
ff0307fc0efaf40005fe0c09fe04010d
090b0c01ff0ff6f302f90b0e0412ff11
0911fb0708fefeff01040b11090af00f
0a0f0bfeff02f7eefeff0e05fdf700fc
fc15fa0402fbf6f6fbef19fcfcf9f4f0
f515f51502fbfafd04fe0f0003f5f6ef
f50aeb0bf903fd0b1602fcf9f6ecfdfa
f215c700fb08fc0304040b01fcf50ef9
f8f7c905fc0e07090beff2fcfcf81902
fe03be16eb09ef080efaf9ee0bff1cf3
f707c51ff606ee0415fafbf412ee24fe
fe16d10bf7f3feff15f3fafb0d0d0cfb
ee0ee00901fbfd0412fafffe04f416f8
ff16e00b00f0f0f717f9f8fbf80e1fff
fa19e31105f8fcfa2aef050efff118ff
0c26f2f402f7f1e821f50618e5f22409
0e1709f1fffcf8f11effff17d8e726f8
170e10100907f90013fefb11beed2f04
18080f01020506fd1dfd0309aaf42d0e
050e041aff01050f10f909069bf71a05
02f5020d0301f8f910f00ef794f61709
f1050618020406f80000fff399ec1b0b
dbfa0411fdedf60910fcfef89dfd110b
d0f3fe070ceefc0c1301f0feaef712fd
c9f501100303f21408fc00f3b4f508f8
d6ef060e11f7f4121a020802c205090c
f6020d110cf9f5160902f309caf706fa
f0f3080d0cf1f30f0307f00ced000104
0bfff80bfef7f5f908080a110307fb04
0e0dfaff04000000fcfd0fff020bf909
0707070ff6fefbf20af71600fb0cf70a
0f1d0206fc03ffef0cef1009f80201f7
081bf006e9faf7fc06fe13faf90b07fb
010bdc08f113fc0307090aee06030af1
f420cf0cf20af60403fe06f404f80cf4
fd1bbe10f60cfa060704eefc03ee0bfd
0208cc0eee03fe04ffeeeef6f6fc01fc
0c1ad802f90cf8080aeaf8f605011806
f824e11403fce91b0ff6f0ec0d042206
f029dc1efcfafc0413f6f5f0f3170bfc
f12de72cfde5f60d0bfe05ebef011205
f014f52604ece7070bf206f9e5f123f7
021af11ef903f4f721e4fc0de5ef2102
0e0d0108f4fdf9f524fbfa1bd3f62606
22190906f707f2f12806f814d0f51d01
1f0c00020905ed062203f80cdbf712ef
1fff091100f1ef06050bfe12c8f21408
19ff0c140202f20210111203b4e80e02
020a06100105f507130504f6a5f10204
ed04001d0303ee07080214fdacfa1617
ebf4f51a0cf3e30803f802f19a02ff0c
d6fa081618f3f20a05f607089ef8090d
cef50a0503f2ee0804effcf5ab071008
d9ee020a1eecec070cf3f7f1ba03160a
f2f5120408e8fb2106fbf205dff40916
f5fbfefc08f7f60cfe05f807f605ff01
07fbfefb10faf4fafef20a0cfcf7faff
100202fbff0502000bff14090411fb07
0618060a0503ff0405f60bfffefff904
070cf811fe07f4f302ef0cf80c0809ee
f915fa11ee00f5fb0df81101fdf810fc
ff11e90ff703f707f80800eb010207f0
0815e20eea0c02fe0f0bfef409f708f0
f816d914eff9f6fbfcf8eff20bf6fdfb
090ff602ff02f40f0305e9f0fb0110fb
0c1c0919ff07f903ff01f4fbfffe060a
0b0dfa1f0bf9f10d09eee4eef6fa12f4
fc120726fae1f31204f2fde1f70e1004
f1090c28fbe1f30b07f5f8e0f8060df7
ee07161befebf8f304e00af3fcf603f6
eff9041af4f4ffed09daf50ff6f20df5
04f401f4ecf0f6f1f7f3e012fef6f7f3
1ff8fdfce802f0f2f0fde420f7f900fe
2309f9f7eafff0f1f8fdf10fe9f5fc01
1b05fc08ecf0e5f9fd001303defdef07
12130511fce8d80503fd0c08d9fd000b
050dfa1802f7e1f4fd031909cefdfc01
f6fa041000ebdc01fef107fcd4f80803
ddf1030215e8d80807f6f9f2b804001c
d8fffc0c11eadcfa02f8fe01c50a040b
d1e0fc071fdeddfc0efcfa0dc8060f0a
eaf206f516e5e40dfcf90000d5fd1009
ebf704fa1ae3f41d05f5edf1d9f8090e
0402fe020ff4fc02f5fcf1fef2f806fc
0508fff9fff8f804f5f2f80502fb0704
070f080c0a03f4f502f30d030108f9fe
091207fdfc0cfdf900f90c080009010c
061007fff10cf1ef0def14f90ef7faee
07fff010f0f5edf7faf702fc07f8fff8
090cf60ce5fdfa12ef0201effc060ff8
05fffe0efb00f6030313fffaeffb04ec
0dfe0110f0edf000080a0003fcfbf802
0104090ef8f801090604edfff704f90e
fa06211700f9f2110b05f3faf4fdf205
0fef210af7deed0c03fbfaf0f40e0305
fcf72311f8cef10b0a02fcf4f10ef1fe
f6df0e0bf0e6ee1009e518f2fe01f908
f6d41702eddbf2f3f3de01fdf2fef201
f2cf0de3edecf4ecebcef60504f5d7f3
0de6f8caddf6f7f0ebefd50a02fed5f0
15f106d4e9eaf4e2df03d50cfe01d600
250aede5e601e8f2f8fff005fb01ecfe
1a0eeff3e5ebdbfdfaf71cfcfb07f9fb
1804f5f4e9eadefdf5f318f80604fffd
0015f404eef2dbfbfdf513f410110c07
f20bfcfbfee6d50301ee0ff0ff0d0dff
ebf80906f8ecddf500f003eaf4f40607
d7fb02fc05f5dfe8ebfb06fee8060509
d9e707f905e5de08f2f6edf0df0d120e
ecf80cf70ce4da100206dae8eb071017
f90506ff00f6ea18fc09eefbf8020e11
f9faf7f709f2ec0bf606f4000a04110b
0c0509ff050b030000effe0b09fcfb0d
0f06030203ff040409001309fc0df40b
170e0efefdff04f3fbed0905000ef402
1b01050000fef6f706f30bfeff05f6f4
18f302fdeefdeb090afcf7f9ff090403
16e815f6e3edf2120b14f9f9fefc02f1
14df1201f8efe8fb1116fdf3fef4fd02
08e51b09e9e1f40d0901fdf8060f0305
08f31d0dfce0f8fa03fffc05f501f703
f6ea210313c7eb0d10fbfef6f816f612
00e90efc04cef90c021208f1fd13e810
03d020f505d5021d0507fcf1fb0ee017
f7c109f5fad7fd17f0f807f30407da07
f1b80ad4fbd9eefeecd80af50104dc01
eebcfebd0cea01f3dfcef201f008cb08
fcd7f3c4fee3f8fbe8e1d1f6faffde06
17f5efc9fff4f1f3edefd106fe08e40f
2400f6e3eff4f4eef7e5f9ff0a04f207
2910edefe7ece8f9f0f018040f04fcff
1f02fbe9e1ecddf6f7ea18f62414ff04
0807f4ece7eee4fffef91a01200c0605
fa02f5f8efe1d508ee0221f4220bfb07
d70a05ebede4d7f6e9ff0df62102fd1a
cbfaf5e8fce2d7f4f0fff8f80e020914
e8f713eef4f3d0fd0203eef205020b14
effd07ee0aeee004fd1dedf009ff1908
f1f607f3fee5e919fe0eeff20cff100f
f708fef708fbf40a03fbedfb08fd0705
070c06010d0800f708f2f6fb0d05fa02
080b080c02fef3fff9030c04ff0503fc
02fefe01030002fefdf214010cfff3fb
10011004eefb02f6fef806011108fd00
0feb09f6eef5e8060c04fe06fe02fa03
1cce20f8d2f3dcff060bf7fb050cf4f5
15e81406dbd3df0d071301fb0c0dfd01
05e013fee5ccf3fd1b18f60f0104f905
0eda0cfcf8c7fa100d0e04120a00ed10
09d3fdfe06cbf605051dfcfd0705f401
07cdffff1fcef41a011311070414e50e
f2d705f516d9f80f051103ef0d10e519
f7bcfbdf0df2f20df00212e5ff04ea1f
e1cff4d818e9ef09f7f607e8fc0ce316
f4ddf9cc0cddfef1ede1e4f2f408f801
08f3eacd0be7ecf8f5eecaf9f611f0fe
1c12edd40bedf9ec00ebdefaff18f0fc
1704fee30cf8fcf6ffe90cfc0a06ef03
1800eff6fff8fbf8f5e11c080d18f106
0509f5ecf0f2f0f8f8f625f91214f7f9
ff0201faede1e309000714fb1112f608
ee0cfce6e1dced00f20015092406f710
ea01eef0f3dfe30bf70f0b082a08fb17
e9f9faedede0d5ffeb0cf9ef1b0c0111
effc0ad7f7e1e500f416e7f0060af617
f70000e1f4f5df13fc1beef8f70a0116
f90207fbf1f9eb180512e5f600050305
f60e0efcfa11edfffffcf0fa0bfc0601
0103fdf90000ff0305f105070403f8fb
14fd0e0506fe03fafafe0a000e080006
080a01fd0a05040304f811010307fef8
15eb0df8f10100fa070702fe0505f4f4
17e012ebe1f4e9010c0b03f3faf6f7f6
1fd41ee8d8dedd010e0e05f20100f0f9
fbe012f0dfd5e506fa15fd0cf912efee
05d706ede6c5e603120fff0af513eb03
f7d60201e3cdfb03080e0507f711ee0d
fde3e6ef02dcf7050f14fb1c0007f008
f8e3effb14e4f514fd1bfb0a0a0bfb16
f4daf2e61ffffc13eb250afdfe05f813
f8e2e4d136fbfc1bf50c05ef0c12e515
e6ebefdc1cf4faf5e90cf6eff7120715
edfdf7d826fdfcffedfbd8f6f717f80d
f905e9dc29f906f1e8ead6fdff1c01fc
2307f9ec10f7f7eaf4e6fd06fd240108
2907fbe70102fbf0fef91a0f0912f808
1c06ffed07f0f70204f626ff0b0af811
0c0b0bec05ebfbf6f9f717000f17fb06
f707fef8fcd5f10b11fa1ff8141f0401
020108def5ddf604fa0d12fc1512ee04
f0f2f9deded8ef030212ff0b1404f318
fcff02efe4e1ec05050cf1f20b0eee0f
e9f810edd9f6e0f9f511f2f3120dfa0f
ef070af4f0ecdbff091af8f00007030f
fa010dfcf8faea0d0a0dfbec0e07f9fe
f608fafefd01fa07f80406f60617020a
fefa01fd0a030400fbf40507061003f7
0d000dfc0afefcf6f9f10a0804ffef0a
110700000a07fcfff8f40201000302f9
0dee0ff0f9f6f4060a0106f80a02ecf8
14ee0be6f7f7e90f091700f0fafaf1ed
03e20fe8dbefe90a0e1cfcfafd07eced
07ea06e4cfdfdf140113ff120b11feed
0ddaf7e2cfe4ed02080bf710f908f1f6
fbe0f3f6ddeee6060811fa0e0102f601
04efecdbe1f7f1180b19fe1afd0df416
f9f7ede2f705fd1ffd270618fc04f419
fbecdbcd120ff21beb2bfe11fc0dfc16
fa03f0d01f12f101d21f05f3fb15061e
0102e2db29fcf2e0df0deafef91e0c12
0609f4e4250eefe1f0f8e9ed0015ff0d
fc13ebe01efe09e1f5f2e7f4f5170001
1d16f7ef260b07e904f4fffbf81df604
1d0ff5f11af800f7fbf61f05ff11ed15
0906f3e315f2fef1f9ff1ffa040ef907
fdfd03f4fde8f3020a0b15040d17e50c
04fe02eb02daf602fbff14070911fb0b
00fb09f6fbe5f6ff0801080b0316f8ff
08ff09f6f2e1f60f060807fe0517f0fb
f008fdeaeaecfc050518fa070e0af6ff
f60301f8ecf0e502060bfcf5130ff303
f50b13eee5eee7f7fb0ffff3100109f8
fafc19faf8f7e908f510f3f6fd0ff107
edfa0e0af50bf608f70c03fbff19f0f6
080f0cfef912fcf6f5fdfefafe1301f8
140f0cfafe06fb02020010120811f30d
0c0417f70d0dfff709ed04fa040dfefc
17f925f001f7fbfa11fc00fe03f9f1f9
04e31ae0f3f6f4110a0803e7f8eff1e7
03f307eaeef1fa12ff0d0af5030beddd
08df02e2d8fff6110d150b010006faf0
16dfefddc3f5f7040f15041af90204fc
0ef9f6e0bb06e31a0b0b0919f4fef408
fa08f4ddb610f126fe200e16f9000308
ff04f3d6c912fc24ed210c100500fd19
03feefcfee0eea10dd1c0c1cf7050520
0304f3e30514fcece616f90efd0c0114
f9fbf0ee1107fce2dd07effb01190103
f0f601f3201007e4ef05e3f4fe10f600
11fffaf7190f07f1f004f6fbf921f8fe
190ff1fa2b040def030a19020818e902
171af1f31df10bf30306210b0016fc09
0a0cf8f10bdafaf1fd041aff0408f2fc
fbfdfbf804e009f304011f060411f101
f6010cff04e0f5f708fb0afefd0deef5
060604edfff5fcedf4fd13fffa0cf2fd
0a0b07fd0af006f1fa0cfd07020aedee
e50103fdf7f6fcedfefa03f70401f1f3
e10006ebe8fbf8f4f50bfbfb020f04f9
e20a05f4f003f6fdf407f6ec160b0701
f60418fffdfdf60af60606fbff13f3ff
fc0d0cfd061500faf9060108fc10f3ff
0d03ff09fb0702f607f9fffe0e14ff03
060107f90b07f7f10af2050b03010404
0bfe12fc09fb07fdff020efc0ffdf0f9
15ff16e905f9f9060cf806fc0b03f1ed
12f015e312fdfa09070207fafffaffe3
09f406ec01080309081109fc01fe08e7
16e7f2d9fbff03010b181500f1f805f0
03f6fed9d904f910051d0c1000f2feea
0b0803d7c106f314071709120904010c
fdfe01d4b116fb28fa13052404fff60e
fc0a10e2c216ee1a0a09011303f40114
fe0513e3c219f306fd18022808f00211
f80013f4e01ff2e8f30bf80f06fcf81c
edff0402f417f1d4f609ef12f6120a0d
e80809fd021e03e4ef03edffff060e0a
02ff10fc080afcf7fa0dfa0b020d00ff
0a0d0f0115fc0cf2020f12080dfa0507
fd1306fd13eaffeafe0b110e0312f002
03fdf7fb01e910ee05f81600f80cf802
fe0106f90cf606e300041d0efa0cfd06
fef712041a02fee1f5f313050b0fefff
050afa0002f9fef8eff90b0c000ee4f7
f80b05fcf3fb01edf30505010207f4e7
ed0cfaf3f8f3fbe6f8f6f903fbfde8ea
ea06fce9faf90900ed0deefb0710f9e6
e8fcfa03f5fef508ef0bf7f6050df5e7
000b0d00fa0ffcfd010b04fffd06fdf3
000f0f100410fef4fefd0d000d19f7f8
0b020e050a04fff0000204fd0f08f7fe
0c0401080307fc01ffef10040e0d02fe
0efb15fa14090afd0b04fe060a0beefa
120912fe180a07fefb08fbf30901f3f6
fd0012ed1a05080b0e1109f006f8f3e4
0cf4fbe71e050606031d07f40ef501e0
14e8f8e21d10090df60e05fdf5ed06e5
03f908d6f013091af70e0c0406ed0bf9
03ff02dcde0f0518071a0208fa04fcf9
03fe0bd8d120ed2e0612030ff2f202fd
05f704edd818f025f817ff22faec0512
f4f212fdb621fb10f517f516fae60818
dffb13f0d526eae4ee0aeb1903f0fe09
e7f8070dde1bf2d9e7fbe0fd0b01fb07
e1051802db0effe4f20ef4fb030507ee
f2091bf7eb0306e3ec1403fd0207f3f9
050c06f708e60df80a031d050300f001
06050df400e810e5f9fb16010509fb02
02fa06f1120208f8f80d1d0e040fff0b
fd05fef6130b07e1ea060e0efcfd00f6
05f703010c0d03daed05010604f8f0fd
f7f8e7f30f020ff1f7f9f60304f1f4ee
01fa00f3fb0912f9fa040102f70becee
0008f8f1fe090f00f406e3f6eb03ebe6
defdf906fbfd1eeef5fde2f10006f0ec
f00dfb04fd0611fffd13e5fe0304f7e7
f1f9110d08110105fb10f5f01309f7ed
06fefd01fe130304f8090c011703f5fb
0403fe07fa10f8fbfc040708fb10f203
17fd03070e0309f9fcff010902fcf604
12fd08fb1206faf5fdff080207fe02f7
ff0323f618050006fa0bfeeffdeef6f8
0e0d0dea180501110a0a01e706f7fce8
05f103e42aff0e1e0709f5e613eafde4
0af503e023041b06fe1008ecfee2ffdb
fdf703e7140a0e14fd0c00f002edfbe9
0bf5ffe419150726f418f9fcf7f5fdfa
ff02f9ff0015fc1bf20df6fc04f9fc02
faf908f7ed17fe25ec11fd170efefd01
faf91107de2a01f9f803e90c06e802fe
f3061806e428fae0e3feee0e11f7000b
f9f90a04d52000d6f10ce6f50c02ffff
eb040df6e1040ceeee0eec0111fa0601
f4fc0b06e5f712f3f9100b010bea07f9
fdfc0607f6f31bfdea100a07f5fffef5
05fa0f08ff051bf2f0051401fc03faf4
02f6fefc0c190cf0e4f6fd060603f0fb
f302fafc052114f5e602f80cfefdf802
f0f7ef020a2414eaf7fefcfff0f307f6
f0edf0f9070e12eff104f5f5f00101ec
fffbf105f72120feebf6f4f6ee09efe9
e201eef8f81722eae9fcf5f3ff08fff0
e2120106fe1625ef0111ecf2fd0c07e7
f50b0b000c0f2602f70ff5fbfd130ee9
040a0f06021519ff020cf40703ff05fc
05fe0305fe0f19f6f9fefd04100608f6
060a01fd0813fe01ff06130b0c0ff708
0304fffffb05f9fe02f40f0dfc0dfef9
04040ffb16010ffa06f601fe13fefc02
010b250419060c0cf60509fc0301faf8
110c0ff525070b08f705f8f80bedf7f6
04f408f028072112fb09f7dcffee08e4
04f401ed2217240bee17f0e4ffe507db
02fdf8f31b0d0812f319eeeb0bde03ee
0af90809270a0914f01ef8e809f5f5eb
fe0506f725170b1bf518f0f00aeefeee
fc05fdf8171d1c1cfd0ef1f004f5fff4
080c0afc101e020cf917f1000701ff01
f8060906ff2805fbff19e2fe0ff8f402
f80013fc041c06f1f10beef007ee000b
f0fffd0afbfe1deaf31103f302f5fbfa
0100fe0ceaf31f02e90203f2ffe70cf3
faf20204f70113f8ebfc08fef7f208f1
02fbef0c040824ecf1f400070ae9fdf9
0c00f404f4151cf2e906000dfc0101f2
f500fa01031715fce40503f2f6ee02f9
fef5eb070d1c1feae50a06f9fffdfcf4
f0fae204091915e6e2f8f6f9ff0604f4
e6f5f10cf61324eae907effd0801fbf6
e60ced10fd0e18f6e702ffedf1fe04f7
e404f4fd020c28f8000406fff40903fa
ed0b05fd041630f70518f7ffef050ee6
f9060705072011f7fb1af8f605fb04ef
0e0c060ef714090401090aff0908fef3
0108fc0bf61306fe0308090d0103fdfb
13070502f91209f4fef3041006fdf207
fa0d0af804020af8fff609fc160af8fa
0c0711f0160917fb07f605f401f80af4
090b0af9110f1e0fec0e07f609e902e9
08f70cf30a181f0bee12eff409f308e0
fe030cf6110f201ee314f7e804ebf3f0
07fc080f19091c1ce818eef505d8fae1
07fc0b0923081816eb0deceff7f0f9e9
000e060f29041f23fb17e8ea07edfde8
0b06f5081b1919230109f4e6f7f7fffb
f304010e1412211f051bf1e703f4fd01
05030608120f1308fb06eee5f4fef3fb
0505f917070d18f4f80a0af5faecf504
f3f0f110f4fa1002fbf90ee804ff07fe
faf80010f7f013f0ea0204fb0af20b04
f4eff10cfef51df7e10307f507f408fe
fff7061405f617f9e0020efffbef09fc
fafbee07000c18feda10feff04f701f1
fb00e00c002116e2e9fffefffb0200f9
fafee70a091c1eebf1fafbf80df604e8
fb07e8fa011e1ef7e6fb02f8feeb00e4
fa05d9f4072017ebf10bfcf500fffce5
f406d5ff0a0f2e01f6010a01eef4feee
e614f4ffff162bfcf4140502fe060dec
ef19f006051e1ef2f40efffbfeff03f1
f504fe13091517f0fd0f0d08ee0113ea
fe0805050a1908f8fcf70810fb0df8f6
0a04fe020805fcf6f8fa01090a09fff9
04020400fe0f03fff700140dfdffff04
050800fc040004f702f4030d060203fa
11fc16fe03010f05010909040a00fc06
070508f213fb170bff00f5f408f9fcef
fbfafa07fe102d0dfa12faee0bf912ea
04ff070f0b0b1e19ec04ebf4f5df01e3
00f3f80d0c121117f815fafa00ef00e7
060c000314101409f312f2fe02f2fff3
fc0bf00b12011d17fa0ef9f103ebf4f2
0302f912100e1819040e0aecfbfbfced
f700f6100d061616f701f6e402f9f8f6
fa08f21216101e1d0307fbf30fe3f103
05fbf70e010b07f9060b0cf0feecf8f8
05f7f20409f60bfff3fbffe60de7fdfc
fafefb110dfc00f0fa03fcf600ecf6fc
f7f7f202fbf50ff7e1fe04fd19e9fefb
0000f31009ee0df2eb00f5fe02fa01fa
f7fce004090d13f3df140101feef03e7
0df4ee03050c0ce2ea060c0210eb02f6
fdf5d9f5040f22f9ec0100f600eff4f9
fafcdcef0e1411f2f305f7f9fcee02f2
fa10ddef060d29ebef11f6fdf8e909eb
eb01e202080f2beef7140c06fdf60aed
e405da09031c20fcf005fef7fffc08fb
ed07f30c062021fbee05f80df30116fb
0301f80ef61019f7f7fdfb08f20c02f6
03080b01041617f9f5020c13090cfef9
0f09fefd021004fd04fe06fffffff803
09fbf60dfd0803fe01f80f0a0a03ff01
1700fa0108fd05f8f7fe10100c0b00ff
070b10ff080d1103fbfa0b09fffc07fb
04000802f5081d17fbf9f8f802f702fd
090af60bfc0a1a0ff703f50402f606f8
1505ee04f80a1b0d030aef0703ea0ee9
0dfce412f30f1f1c0207f000fdf404f8
040cec0df4fc1110f807f50cfaed01e6
f9f6e616fff91814fc0e00f505f5fef9
0402d7fffe030711080b07f107e602f6
0603e1fb0712071bff0102eafde9fd00
0801da04fdff1010f90a02f6f4ecfa03
fa02c9ff0a0a0519ff0cfbf004e90904
f100da0505fb0e02f6f7f3f0fae301fb
ef01d705fcec01f5e7fbf1f3fdeafd06
0306d7fbfdeff9f3fcfb02f300e40205
f809dc14fbe5fb02e610f2f5fbe40402
fcfed90a03ed09f3f1ffeff702d30df8
09ffe1080df902f6fafafe0706cd14f4
00f8dffffef927f0faf2fe0605d912f9
e9f3e50201101bf6f404f60304eb0ded
f9f9e5f0f31f26f9010e030ff8e514ec
e70ce9f7fb232dfbf40bf805faee08ee
f001f00304121309fffd070100fd12fb
fcffef00fc131bfa0702fc13fb0312f3
0dfdf6fc020a04f808f50a0f06fd02fc
0ffe00fefe08ff01ff000907f809f508
0bfd00fb0cfef60400ef010f0a0af00b
0c090c090a0bfafc01f1110b0e03000b
12fc040d0003fbfc03f20404010a0408
1a0c08fff9030efef6f302040305f5f6
06040b0cfc081106fbf0fdf804f801f4
0811f601f508091101f8eff8fc0013f1
