// INT8 weights, tile/input/PE-packed for ARRAY_SIZE=16.
// ---- layer 0 : shape (128, 784), 8 tiles of 16 ----
08
f7
02
14
04
f4
f4
04
02
00
04
13
0e
09
03
fe
0e
f8
03
05
01
f9
04
00
01
00
0f
08
0e
0c
0f
08
ff
fa
02
10
ff
05
f9
f6
01
02
04
11
fc
0a
13
0e
00
f2
02
0c
04
f7
f2
f9
02
01
fd
04
07
ff
06
fe
04
fd
03
15
fc
06
fa
fe
01
01
ff
05
ff
fe
11
fc
0b
fe
02
11
0c
f9
01
f3
02
ff
04
0d
ff
0b
04
08
07
fc
02
0e
0b
ff
f1
fd
02
00
12
01
fe
fd
09
fd
0f
ff
02
08
07
fe
fb
00
02
02
0f
02
05
03
19
07
03
04
03
04
fe
fd
00
07
02
00
15
07
13
fb
12
08
ff
fe
01
05
f8
05
f7
fa
02
ff
13
06
0e
ff
1c
09
f4
f7
02
10
ff
07
fc
08
02
ff
0c
04
02
fd
13
01
f5
f5
01
fe
11
f7
f5
ff
02
00
03
01
0b
07
21
07
f2
f2
02
00
fc
04
f3
f7
02
ff
fe
06
11
fb
19
fb
f6
f1
03
08
fe
01
03
0b
01
01
01
0a
12
fb
1f
03
f5
f9
02
01
0c
fe
f3
0c
02
00
fc
fa
18
04
29
f8
fe
f8
03
08
0d
f6
fb
fa
02
02
06
06
09
01
20
f7
02
fa
02
0e
fb
02
ff
fb
02
ff
ff
04
09
05
24
fe
05
f4
02
07
f9
06
f5
05
01
01
06
0a
10
fb
16
05
f9
02
02
00
05
f6
01
f9
01
02
0b
0d
0f
fe
13
06
fa
f1
03
05
01
f5
f3
06
01
02
16
04
03
0a
18
09
fe
f9
03
11
10
f4
06
fb
02
00
0f
02
01
08
11
02
0a
04
02
07
08
00
00
fc
03
02
10
01
06
f9
05
07
01
05
03
08
f9
fb
fa
fa
02
00
00
04
0e
fa
05
0c
0e
f6
03
13
f7
fa
f3
07
02
00
fd
03
01
05
12
fd
06
fe
02
10
09
07
fc
f9
02
02
06
06
04
f9
10
03
09
fe
02
05
ff
fb
ff
fb
01
01
0c
0f
0a
fc
06
0b
12
f8
03
18
fc
f7
f6
04
02
00
0e
0c
fd
fb
12
03
fe
f9
02
15
05
ff
fa
f6
02
01
0b
04
02
f9
10
0e
01
00
02
19
ff
f8
f1
fd
02
02
0f
0f
07
fc
0f
0a
06
f5
02
14
06
fb
f1
f5
02
01
01
0a
01
09
0b
00
04
ff
03
0b
04
03
fa
f3
02
01
09
09
0e
f7
10
0d
12
01
02
0c
fd
00
05
fa
02
01
10
0d
04
09
08
01
01
f8
02
13
f9
f6
fb
fe
01
00
01
03
0b
f8
02
0b
03
06
03
05
08
07
ff
07
02
01
11
07
06
ff
0c
0b
fe
fb
03
05
fc
04
f7
f3
02
00
03
0f
07
fe
14
09
f7
01
02
f2
01
f6
f8
fb
02
ff
15
0b
14
09
0e
0a
f7
04
02
fa
07
02
fb
03
01
ff
12
0a
02
f8
1e
00
fa
f6
01
04
02
01
f6
04
03
00
17
00
03
fb
28
f4
f1
fe
01
fe
17
f6
00
08
01
01
09
01
07
f6
28
02
f4
f2
00
f7
0c
f5
fe
fa
02
00
01
06
10
fc
2b
f7
f5
ee
01
f3
15
f5
ef
00
02
fd
f4
fe
0c
04
2a
ed
e9
f6
03
01
14
05
fd
08
02
01
fe
fd
0d
08
2a
f2
f1
ff
02
f9
12
03
f6
00
02
07
ed
fa
02
08
25
ee
e1
fb
03
ef
ff
06
f5
0d
ff
08
e6
fb
0e
03
29
f6
e7
fb
ff
05
07
fd
fa
fd
ff
05
eb
fb
07
02
19
e8
ef
f7
00
02
0f
09
f7
0b
00
07
00
f3
11
0b
1e
fb
fd
ff
00
f8
fd
03
f5
04
00
02
03
f5
11
0d
15
ef
03
fa
03
f7
0f
f6
fd
fe
ff
01
0b
f5
06
10
18
fa
f7
ff
03
07
11
f9
02
05
01
03
15
09
01
0a
0d
06
ff
f7
02
06
14
04
fa
08
01
01
12
fe
ff
ff
08
fd
0a
f7
02
04
00
02
fb
05
ff
02
07
fe
01
f8
12
09
0e
03
02
11
00
fd
fc
03
01
01
04
07
f8
fc
00
0d
0c
ff
02
0b
fb
f7
f7
f5
01
00
07
05
fb
0a
0b
02
09
fa
02
10
fe
f8
01
00
02
01
04
0c
05
fb
03
05
10
fa
02
09
04
07
06
05
02
02
0e
06
fd
fa
12
fd
02
00
03
06
f7
f8
fb
ff
02
00
01
11
08
fb
12
02
0a
fb
03
08
09
05
fc
04
02
02
11
fe
ff
ff
05
09
00
04
03
0e
08
fa
04
f6
01
01
07
fe
0c
07
09
02
00
fd
03
07
05
fe
04
05
01
02
0e
12
0c
09
0a
0d
03
01
03
19
09
f4
f4
fd
01
01
0d
03
0f
0a
01
0a
0d
01
03
0b
ff
fa
f7
f4
02
01
02
0b
ff
08
15
0b
09
fa
03
fa
07
06
f1
fc
02
fe
15
0b
07
07
14
0a
f9
ff
02
fc
08
f5
02
09
02
01
0a
07
12
02
12
03
ff
01
02
ef
00
04
04
fe
02
ff
07
fc
06
fa
1a
01
f8
fb
03
f2
08
f5
f7
05
01
02
18
01
06
fb
18
f9
e3
fe
01
f6
0e
fe
fe
05
00
03
1b
f4
03
00
17
02
e4
ff
ff
e7
0e
f3
f9
00
02
05
02
04
fc
03
17
fb
e8
0d
ff
f5
02
f2
e9
0b
00
03
f2
fc
f7
f3
09
e6
ef
06
02
ef
04
f7
f6
13
00
05
f3
fb
fe
f1
fe
f3
f3
07
02
e6
ff
f9
f6
0b
01
05
d4
f5
ff
f7
06
f3
e3
0d
01
e0
fe
f9
ee
0f
ff
0a
d6
f0
fb
f6
09
f8
e8
09
01
f3
f5
ef
f4
12
fd
0f
ce
ec
fb
fc
09
e5
ee
12
00
f7
fa
f8
f8
04
fd
0a
cd
f0
fc
08
f7
e5
f5
11
ff
ee
fd
f6
fe
fd
ff
0f
f0
ee
ff
fb
fa
f7
f8
15
03
eb
08
fb
02
07
01
07
f9
02
11
04
01
f1
02
04
03
ed
0c
02
fd
fc
01
07
0f
f9
07
00
fb
03
04
13
04
f5
09
03
00
0b
03
01
16
07
f6
03
f7
04
fa
10
03
fa
06
fb
f9
05
01
fe
14
02
ef
00
01
f4
06
04
02
fe
fa
fd
02
fe
ff
fc
0a
07
f1
05
0a
02
fa
ff
03
06
04
07
f8
fe
00
01
00
09
03
06
ff
01
f8
09
02
09
04
03
f1
08
00
fe
07
05
0a
04
0a
fa
0e
f9
02
12
04
fc
00
07
01
ff
0e
04
03
0a
12
fe
10
fd
03
18
08
06
00
02
02
00
01
0c
03
05
13
10
fd
f8
03
17
07
f5
fe
02
02
02
10
fd
fe
ff
10
0d
0a
fb
02
19
fb
06
00
f8
02
01
0d
08
05
0a
0d
01
06
ff
02
0b
09
03
fd
01
02
01
06
07
0c
02
13
08
06
fe
03
0b
09
f6
ff
f6
02
02
07
00
0b
07
15
02
02
fb
03
0b
03
f4
00
02
01
01
12
0a
01
fe
02
05
0b
f4
03
07
fa
05
f5
f8
02
02
0e
0a
01
fb
15
02
fa
fd
02
f7
ff
08
fc
00
02
ff
17
fc
07
fa
18
04
02
fb
03
eb
0d
ff
00
0d
03
00
15
10
07
fe
15
f9
01
fe
03
e2
0d
fa
fc
0e
02
fd
19
0b
0c
03
12
03
fb
0b
01
df
17
07
ee
16
00
01
14
08
05
00
15
f3
ee
0a
00
ed
14
01
f4
0d
ff
03
18
f2
02
f7
10
f9
eb
f8
fd
dc
0a
fb
f4
07
fe
04
0e
f1
fa
f4
fe
e2
f1
0c
00
de
08
04
e9
0f
ff
00
e7
f8
f2
e8
fb
e9
f5
0f
ff
d9
0a
fe
f5
17
ff
ff
cc
ec
fc
eb
f3
f4
f4
0c
00
dd
f4
f6
eb
14
fb
01
cd
dc
06
f4
f7
e1
e8
09
00
e6
fc
f1
f1
12
fa
04
c5
e1
fd
ed
f4
ee
eb
15
02
ec
ef
de
e8
0f
fa
08
de
eb
08
ee
ef
ed
f7
13
06
da
f8
df
eb
13
f9
08
de
f5
00
f5
fc
e8
fa
16
02
db
06
e3
f3
12
fc
10
01
ec
ff
04
f9
df
f8
1e
04
f0
04
e2
f8
10
00
0a
01
dd
f0
02
f5
e3
02
0a
04
e3
06
ea
fa
01
00
08
04
ea
09
06
fc
f3
f8
14
03
e1
0c
ff
0a
08
00
04
07
e7
f6
0a
f9
e6
04
1f
02
ef
05
00
f3
12
00
02
0d
fc
ee
01
01
f4
f8
03
01
fa
06
ee
f1
0b
ff
fe
0d
ed
f8
0a
08
07
f7
09
01
f8
09
fc
f6
ff
ff
01
0b
02
fb
0a
fc
ff
01
fc
03
01
06
fa
01
03
ff
ff
fe
05
f9
13
08
fb
08
06
02
06
f9
f6
f5
04
01
ff
02
05
ff
0d
0b
02
01
fd
02
12
fc
fe
06
f3
02
01
04
03
fb
fe
09
08
0e
03
02
08
09
fb
01
04
02
01
00
0e
01
0b
12
01
01
f3
02
16
00
f8
fa
f7
01
ff
09
02
03
fb
14
00
11
fc
03
12
09
f4
02
f6
01
00
10
04
06
0a
07
fe
0f
01
02
0c
09
06
01
f9
02
00
0e
12
03
06
11
0d
ff
01
02
07
fe
f5
f6
fb
02
00
08
02
0e
07
17
0b
05
08
02
f3
fd
fe
fb
ff
02
02
19
08
09
0c
0c
f8
05
05
02
f1
fb
04
06
07
03
01
1a
10
00
09
13
05
0d
fe
02
e7
07
f7
02
05
02
fe
24
01
04
fb
17
05
10
ff
02
db
01
f4
fa
ff
02
fb
12
0a
fb
ff
0a
f3
0e
01
02
d3
04
f0
f1
04
01
f9
26
05
05
f3
fe
f6
08
f1
fd
d8
fb
f6
f6
f5
fa
00
03
02
f5
dd
f4
dc
03
f0
fa
db
01
ee
f6
fa
fb
ff
e5
0c
fc
e6
00
f5
17
ff
fc
d2
06
f0
f0
00
fc
05
c1
09
ff
e1
e9
eb
fd
07
ff
de
0d
f1
e6
08
fe
02
ad
fb
0b
d1
fe
e9
02
08
fd
d1
fc
eb
e7
04
fc
02
a8
03
fd
dd
ec
f1
00
0e
01
cc
f4
f7
f5
0f
f6
fd
c8
13
04
df
e0
e9
f7
06
03
d7
ec
e7
fa
fd
fb
01
e4
0c
f9
ea
fa
f2
fe
07
05
d3
01
e0
f6
00
fb
07
f3
18
fe
f0
fb
d7
00
0c
07
dc
09
e2
ef
0b
fb
09
0e
06
f5
fb
f3
db
00
0d
02
e0
ff
ee
f4
fc
fc
10
fd
fd
f0
f9
fc
ee
0f
09
05
df
fd
e5
06
01
fb
08
f8
09
ec
07
f9
fa
01
01
01
db
02
f6
fd
03
fc
03
fe
00
ed
0b
f8
f0
06
00
ff
e8
0c
f6
f5
0f
01
03
0c
ec
f2
15
00
04
07
10
ff
f9
fb
04
fe
12
03
fd
fc
f3
ee
07
00
01
ff
0d
00
f8
02
f2
00
03
00
ff
ea
f9
04
0d
f9
fb
03
03
01
f1
00
f5
ea
0c
02
01
fa
04
f8
11
03
0d
07
f5
02
ff
fa
fb
ef
fd
03
ff
00
08
07
0b
0e
0b
09
f8
03
ff
fa
f8
f9
07
03
00
0d
0d
04
09
0c
fc
0e
05
02
10
fa
03
07
08
02
02
0c
02
ff
fa
0e
fe
12
04
02
14
fd
fa
f6
f4
02
00
0b
0b
0f
00
04
04
10
f3
03
1a
02
01
fd
01
02
01
04
12
09
04
05
fc
14
00
01
01
fa
02
06
06
02
02
11
ff
05
0b
0f
fa
0b
f4
01
00
00
03
fc
08
02
00
17
0e
11
08
13
02
fe
04
02
f7
ff
fd
03
09
03
02
11
0a
fc
06
0a
fd
03
fe
02
ed
07
02
f4
03
02
01
24
09
0c
0a
ff
00
1d
00
04
db
f9
fc
03
fe
03
fc
21
16
f6
09
01
ef
14
f0
04
e9
04
f7
0d
fa
02
fb
27
02
fd
f4
fd
f1
13
ee
ff
de
f3
f8
03
eb
03
f8
24
04
fc
f2
f0
e4
0f
fc
fc
d8
fd
ee
03
f7
00
fe
01
00
ed
d7
fe
ef
0e
00
ff
d3
0e
ec
fa
fc
fc
04
cb
17
f4
dd
03
e5
05
01
fc
e6
07
ef
f3
fb
fd
05
a6
07
06
d0
fc
f0
0c
03
01
dd
0e
f2
f2
02
f9
00
95
1d
04
dd
02
01
0e
fa
fd
e1
fa
e3
f8
03
fb
fe
a1
0b
05
ce
f2
02
07
0d
fa
df
08
ea
f3
06
ff
f8
d5
1b
0b
e0
f9
fc
fb
00
fd
e4
08
e5
ea
02
ff
02
f0
11
fc
d1
ed
ea
15
0e
ff
d1
f9
ef
f7
f6
ff
02
14
20
f9
e1
f6
e2
00
05
ff
e5
08
f4
06
0a
01
05
ff
0f
fe
e9
f6
dd
03
ff
03
e0
12
fb
0d
09
03
04
05
12
eb
f4
f6
e5
00
03
fd
e3
08
fe
ff
06
fe
03
ee
11
f5
fc
fd
e0
08
04
fe
f3
fc
f2
f9
f9
fd
ff
10
00
f5
f9
f5
e9
06
0b
fd
f5
0c
fa
fd
f7
01
fe
0a
02
e9
f6
ed
fd
f9
fa
fc
f2
fa
fa
f9
07
01
f9
f5
fe
f6
00
00
06
f6
02
00
fc
08
03
02
02
03
f6
01
f4
02
10
04
0a
03
0b
02
fa
05
05
04
0b
03
fa
f8
f4
ff
04
fe
fc
06
fe
02
f3
06
07
ff
09
03
ff
f5
fd
f7
03
09
04
fe
ff
03
05
fd
08
05
02
02
fe
06
03
fa
04
12
16
08
fe
02
07
fa
03
03
fd
03
ff
04
01
07
fb
04
08
fe
f4
03
0d
02
f6
03
03
01
01
09
0f
03
01
00
fd
07
f4
02
11
0a
f5
04
04
02
00
10
03
01
0b
15
06
11
03
02
00
fb
fe
08
fa
03
02
fe
0d
11
fb
15
08
08
01
01
f5
05
f4
0b
f7
03
00
1b
11
02
0f
13
04
11
fc
02
f3
08
04
12
f9
03
02
17
03
f6
11
0b
05
0d
f8
03
d9
02
06
00
07
04
fe
1f
04
02
13
05
fc
07
04
03
f3
ee
0a
00
f2
03
fa
2b
06
f6
f9
f6
fb
12
04
01
e4
fb
fe
ff
02
00
fc
24
0e
f9
f5
02
eb
11
fa
00
e3
fc
0b
01
f5
ff
ff
18
14
fd
f3
f3
f3
0c
04
f9
e4
0a
fc
fa
ef
03
00
f1
00
ef
d7
fe
ea
14
09
fd
f4
ff
f3
fa
fc
fe
02
c5
09
ef
e6
00
ed
fe
ef
00
e8
fc
ec
ec
fb
f9
f7
a3
13
ed
e2
08
fd
03
ed
00
f3
05
ec
01
ff
f9
fa
a5
10
f9
e2
f4
00
03
fc
fe
f7
06
ed
06
07
04
f3
be
10
0c
ea
fa
02
0f
0b
fd
00
0c
f8
f7
fd
07
01
e9
13
08
f1
01
fb
05
ff
03
eb
fd
ee
08
fd
fe
04
0d
15
00
ed
f8
f4
0b
0a
03
ef
10
fa
05
08
fb
01
1d
1a
f2
f2
08
df
0c
16
fc
fd
ff
f9
10
08
f7
05
0c
20
f5
fa
fa
e6
06
11
fe
f1
14
f2
fc
ff
01
07
08
0f
f0
01
fa
e8
04
0a
00
e9
08
fe
03
f7
fb
05
04
13
f1
0c
f7
f1
ff
1f
ff
e3
00
fb
fe
ff
01
fa
08
0c
ed
f9
e8
eb
13
1c
ff
e8
fd
f8
0f
fd
02
f8
fd
06
f2
f8
e4
fc
14
02
fe
ef
05
f5
05
f7
05
f7
03
f3
f7
ff
e5
05
09
08
01
f7
f5
f3
12
fe
01
f6
01
f8
fc
07
fe
06
f8
13
02
f7
fd
fd
08
f9
03
f8
03
eb
08
07
fd
09
06
18
03
f6
ff
10
fe
0a
03
fc
03
fc
03
12
00
15
f8
01
02
02
05
06
fb
03
01
00
0e
fd
01
0e
00
0a
fe
0d
02
0f
06
03
f7
fe
01
fe
0c
fc
0c
08
00
01
02
fa
03
0a
02
f9
02
ff
01
02
fc
01
08
fc
06
0d
0a
f2
02
0e
f9
05
fa
01
03
03
fb
0c
09
01
14
fa
ff
fe
01
04
fa
fb
06
04
02
01
07
13
0a
0d
0e
0e
02
f6
02
fc
04
f8
08
f9
04
02
16
10
02
0e
18
fd
ff
04
02
e8
0a
05
05
00
02
fe
14
0e
fb
1d
0b
fd
0c
04
01
f0
f3
0e
0b
05
02
fd
1b
02
e7
0d
fb
fa
ff
05
04
f8
f9
fe
08
01
01
fe
12
1c
f0
10
f7
e6
f8
07
fe
fa
ef
0f
06
f3
ff
fa
25
10
e8
02
00
ec
fb
ff
00
eb
00
00
04
f0
fc
f7
20
02
ed
fb
f6
e6
08
0a
00
f3
f2
00
0b
fa
fc
fb
ff
fb
ed
ff
fc
ed
ff
02
00
f0
f7
f8
08
f0
f9
f6
b0
fe
f2
f4
08
ed
0d
05
07
ee
eb
06
fe
09
fb
f2
ac
fe
e6
07
0b
ff
0b
fc
02
f2
ef
fd
00
03
fb
f6
a6
06
fc
f1
06
ef
09
f8
00
f3
01
f6
02
01
01
01
d0
10
03
f9
fb
f6
0a
03
05
04
06
f7
f7
fb
00
06
16
1b
03
fb
f8
f2
06
04
08
fb
05
f7
f4
04
f9
09
29
11
fe
0b
fe
df
04
0e
07
f9
fb
ef
fa
01
fb
0a
1f
11
e0
07
f8
d3
03
12
00
f6
02
ec
ec
f7
f5
05
0f
13
ef
ff
fc
de
06
19
fd
e7
03
00
05
ff
f8
02
04
0c
e1
fc
f6
e1
09
14
fb
f2
01
08
04
03
fe
f9
04
0c
e6
0f
f4
f9
fd
13
04
fa
f0
fa
06
f9
fc
f6
0d
12
ee
0a
ed
fd
06
11
ff
ed
fa
0a
fb
fd
ff
f5
ff
02
f4
07
ea
f8
07
13
fc
fc
fa
07
09
00
02
f5
04
fe
fa
02
ed
01
f2
07
fc
04
f6
00
0b
f4
02
f9
f6
f5
04
08
f0
13
05
18
00
08
f1
02
11
f6
fd
fc
fd
f9
ff
0c
f4
20
11
19
04
04
ff
0a
07
f3
02
fd
0b
e7
fc
08
02
1d
07
0a
02
06
f8
0a
0a
02
02
ff
10
00
0d
14
fd
13
07
fd
03
09
00
f5
f4
fe
01
00
0d
0c
0d
01
07
14
ff
fa
03
06
fa
f9
01
ff
01
00
0d
ff
0c
fd
16
08
0d
fa
03
11
fa
06
07
04
01
ff
01
0b
13
0a
15
ff
fa
fd
03
07
fd
f8
0a
fc
02
01
13
06
10
0b
15
02
f8
ff
ff
f4
02
01
01
01
02
fe
14
0c
08
0f
0a
03
f5
09
01
f0
ff
0a
11
fb
01
fd
12
0d
04
08
0b
02
02
04
03
01
f7
fa
16
0a
01
fb
1e
02
ee
19
07
ee
05
0d
06
f8
ed
07
14
f4
00
fd
17
06
f1
17
0e
f1
03
14
02
ff
ec
14
fa
04
fa
fa
18
f8
f2
0e
02
ef
ff
09
02
f7
f6
08
09
fd
fc
ee
22
07
f2
06
ff
f6
05
03
04
f4
ee
05
08
f6
fe
f1
01
fd
eb
0b
08
ee
09
fb
ff
f9
f7
06
0e
f7
fc
f3
b0
02
f8
0f
08
f3
03
fe
03
f5
e5
07
0d
fc
fb
fd
a3
14
e3
0f
08
fe
10
fe
fd
ed
f0
fc
07
f3
f9
03
ae
05
f4
12
05
00
06
f0
02
fa
f2
00
03
fd
f9
0a
f2
0b
0d
0f
00
fa
0b
ee
fd
fc
f6
08
0d
fa
f3
0d
1d
1b
03
19
08
f4
09
ff
f8
f6
f7
04
09
01
fa
10
26
07
eb
09
08
d9
07
03
f4
e9
f9
fa
01
00
f3
0f
10
14
ed
19
08
f0
0e
fc
fd
e7
02
03
fe
fd
ff
ff
02
16
cd
1a
fe
e2
01
09
f7
e9
f3
fc
03
00
ff
fb
fb
1d
e6
08
f4
fd
00
1c
fc
fe
f2
00
f2
fa
f8
fb
fa
0b
e4
04
fc
06
0f
19
03
00
f4
09
fa
fa
f8
f6
fb
06
02
12
ef
0e
f7
25
01
f7
f8
12
f6
fa
00
f5
ff
11
ff
0a
fc
16
00
22
fd
f8
f6
05
03
fa
fb
f2
f9
fe
00
fe
f9
1a
f5
1b
02
02
ec
00
03
fd
fd
fd
e5
e4
03
0b
f3
1a
08
20
03
06
e9
f8
09
f9
fd
fa
ee
df
f7
06
01
11
01
19
01
fa
f4
fe
0c
06
ff
ff
fa
ea
09
15
06
29
03
14
01
fd
fa
0c
03
03
ff
fe
16
fe
07
17
00
18
08
06
02
ff
fd
fa
fd
fa
01
ff
0d
0d
0a
0c
0c
19
11
f5
02
0e
07
05
f4
02
01
01
12
0e
0e
04
0c
fb
02
fb
02
11
0a
05
fc
03
02
ff
14
0f
11
01
0e
f7
fc
f3
01
0a
fb
00
13
fb
02
02
06
09
f7
10
10
05
ff
04
01
f8
fd
ff
06
ff
03
00
19
00
00
0a
05
ed
f0
f8
ff
f9
ef
fa
0a
01
01
00
0d
02
fc
12
0b
fd
0a
0f
fe
f1
f6
07
0a
02
01
ff
09
0c
fd
24
04
00
fe
fc
fe
fa
f9
0c
fd
06
01
fc
1d
08
f7
13
fb
fa
f5
f8
01
03
ee
03
fb
f9
fd
f7
13
03
f5
11
06
f7
fb
ff
fd
f1
ec
fc
13
06
fe
f4
19
03
fe
1d
09
00
02
04
ff
f3
e7
06
0a
03
f4
fd
ee
0c
ea
29
fd
0a
05
0a
fb
eb
e3
f6
07
f2
f5
fe
b4
fe
dc
2c
03
f0
0c
06
fb
e7
ef
03
12
02
f9
00
a3
ef
db
2d
01
f8
10
f4
fb
ef
f1
fb
15
f8
fd
07
d1
e4
fa
27
06
f1
02
08
f9
e6
eb
fb
11
06
fa
0e
f4
e7
fd
34
08
ea
0b
f2
f8
ff
ee
0a
0f
01
f4
14
1c
f7
f1
2b
04
e8
10
eb
f2
01
ec
01
02
f5
fe
0d
29
11
eb
29
05
e1
0a
f9
f9
e9
f5
1b
14
fb
fe
09
04
1e
d3
0f
fc
f5
00
05
00
ef
f5
07
f2
fe
f6
f8
0e
10
d4
1b
05
f4
f4
fe
01
02
e7
0e
05
ff
f7
f1
02
18
eb
09
fb
fb
fd
09
03
03
f8
01
fc
f6
ff
fa
f4
13
f6
12
03
06
f9
23
fb
f6
ee
fd
00
f3
ff
f2
f2
12
f8
18
fb
07
0b
1c
f7
f0
ec
13
0e
f8
fc
f4
e6
16
f4
09
f5
1d
f5
1e
fb
05
f4
ff
fb
e9
ff
f3
fa
f3
f9
03
f8
0e
f5
11
00
f0
f0
fe
06
f8
05
f7
fa
e2
f6
0e
ff
13
07
19
fe
ed
e9
f7
0f
04
02
f9
f1
e2
f8
02
00
16
f0
2a
fb
fa
f6
06
0c
f9
03
fe
01
e8
f4
12
00
25
fd
15
01
fc
ec
0c
05
0a
ff
fd
06
ff
07
13
05
16
07
0c
03
06
ff
f8
0c
ff
01
01
04
ff
fc
10
00
21
07
f8
03
07
08
08
08
f9
01
00
11
00
fd
04
0d
00
fb
f8
02
14
f9
fe
f8
fd
01
01
01
01
06
05
13
fc
f6
fd
02
0c
f7
f8
0d
ff
02
00
08
17
fb
11
06
ee
0b
fb
ff
08
03
fc
00
07
01
00
00
03
f1
14
12
f7
fc
05
01
fc
f4
eb
fe
f9
02
fe
f9
f0
ef
11
10
fb
08
02
fe
08
ef
f2
f0
08
04
00
09
f6
ec
26
f5
fe
01
fa
fd
05
f8
fd
06
fa
02
fe
05
f2
eb
1b
f9
09
03
fb
00
fa
ef
f6
f8
f6
f9
fb
17
00
ed
24
02
03
05
f8
03
fa
f7
f2
07
fe
f9
00
19
f7
e7
15
fc
fe
0a
f1
ff
f6
e6
ff
0e
f2
f8
08
f1
f8
e7
23
02
ff
fc
0f
fc
f8
e6
eb
0a
fe
f9
07
c3
eb
e3
24
f8
fa
08
fc
01
f3
f9
f1
11
fb
f9
06
bf
e1
e3
3e
04
02
0b
03
fe
fd
f9
f1
0b
02
f4
0d
ec
e8
f8
36
02
fa
07
05
04
06
00
ec
09
00
f0
12
13
da
ec
32
fd
f1
0c
04
00
01
f4
fa
0e
00
f8
10
12
03
f3
1f
fc
e4
ff
f4
ff
f9
fc
01
05
fa
f9
04
1c
10
e5
0d
0d
f0
08
f0
f6
f6
ed
01
11
fa
f4
01
08
19
da
0f
08
eb
f8
ef
fa
00
f4
10
fc
01
fd
fd
0e
1d
dd
fe
f7
00
02
08
02
05
ed
15
fe
03
f9
f4
ef
19
f4
0c
0c
fc
01
03
03
03
f5
15
00
f8
ff
f6
f6
13
ed
09
fc
16
fb
1a
01
08
f4
0c
fc
f9
05
f2
ea
16
ee
0b
ff
11
08
19
fa
ee
dd
13
03
ef
02
f5
eb
03
f9
f2
fe
0b
fc
0b
01
01
e3
01
03
fc
03
f7
fa
00
00
ff
01
11
fd
0e
00
f1
d5
07
fd
f4
00
f9
f8
ee
f5
f9
f0
13
f5
14
fe
ed
e9
0a
fc
ed
06
f8
ec
e4
fd
ff
09
18
f0
14
01
eb
f5
10
0e
04
03
fc
ff
f0
01
0f
0b
1f
00
0b
01
f8
ec
0c
10
ff
04
fe
0a
fc
f6
04
fa
21
08
08
02
12
f2
08
12
fe
03
00
0b
fa
04
fe
01
14
0a
f9
03
07
03
f8
fe
fe
01
00
01
02
fd
0c
02
0c
02
06
02
18
06
fe
f9
fb
02
00
0b
01
00
fa
01
04
f5
ff
02
19
05
f3
0e
07
02
01
05
18
f4
0d
ff
fa
fa
06
02
0b
fa
ef
f4
00
01
ff
06
f6
f6
11
09
eb
fb
fd
04
08
f3
f1
e6
ff
02
01
0c
f6
f1
09
00
f9
04
e7
fd
0a
fe
f4
fc
fd
02
02
0a
fc
ef
05
05
02
17
f1
fd
04
ef
e5
01
01
fe
fe
13
f1
e6
0e
f0
01
10
f4
fb
fd
ed
e2
e5
f4
fb
fd
0f
f1
df
12
f6
fb
06
ed
02
fc
ef
e5
01
fa
f7
03
0e
fa
e7
08
f9
ff
10
f5
fe
03
f3
f2
fb
05
fc
0b
eb
e3
ea
0c
f5
fb
12
11
01
04
fd
e6
f7
f3
01
00
cd
da
e4
0c
00
0f
0b
1e
fa
fd
04
de
02
02
f6
01
de
e5
e5
00
04
09
09
17
02
05
fa
dc
02
02
f7
12
ec
eb
e8
02
0f
f0
09
22
ff
07
fc
ee
fc
0a
fc
09
08
f6
f5
ed
03
e0
fd
09
01
fd
f1
f6
04
f5
fd
09
10
09
f5
f1
fe
eb
03
fc
02
00
eb
0a
f9
fd
f8
fd
1a
13
e2
f9
09
e3
0b
fd
01
04
e1
00
01
f3
fb
fb
10
17
e3
e9
f9
f5
06
fb
02
0c
e7
01
ff
fe
f6
f6
ff
12
eb
ea
00
fa
04
ff
fc
09
ef
08
fa
02
04
05
fa
17
fc
ef
0a
09
05
f4
ff
12
e8
1c
fa
f2
00
fd
e8
07
fd
f1
f8
11
07
03
f5
fa
eb
1a
fb
f4
0a
f4
f4
0b
06
fb
00
19
01
0c
f9
f1
df
1c
04
fc
03
fc
e9
0b
fb
f4
fd
08
00
f2
06
eb
da
14
f7
f1
05
01
f6
fb
f5
fc
0a
0e
e8
fb
01
f8
d3
09
f5
ec
07
fc
e8
e4
e7
eb
fe
26
fa
0d
fe
e9
e0
f7
f9
fe
05
fd
f4
f1
f2
fb
fd
21
fe
08
fe
f0
f2
fe
ff
06
08
00
ec
ec
f3
00
08
07
fb
00
02
f3
eb
02
07
01
03
00
f4
fa
03
0a
05
0f
08
fd
02
08
f8
fd
13
f8
02
02
00
fd
01
01
0d
18
0e
fc
03
13
fe
07
f7
f2
02
00
07
0a
fb
fc
06
01
0e
f4
02
0d
fb
f9
fa
02
02
02
0f
02
0c
0b
ff
0a
0d
fb
01
1e
fc
fc
06
00
02
02
0a
12
f1
03
01
f5
0d
08
03
11
f9
f3
f2
f7
03
00
fb
f9
e2
fa
05
ff
fe
f9
01
02
fb
e0
f5
f1
04
03
03
f9
e4
f5
06
f8
08
f5
00
03
ee
e3
eb
fc
02
03
ff
02
e2
fc
f6
f7
1b
eb
fd
05
05
f3
fc
03
fd
00
01
fc
dc
f0
09
ff
13
ee
00
fa
10
e9
f0
0a
f5
ff
0d
f4
e2
f8
fb
0b
ff
f6
09
07
0a
de
ed
fd
f2
06
02
f5
f6
eb
10
05
13
ea
03
fb
fc
e7
f1
03
f4
02
f4
f2
ef
e5
08
02
0b
f6
02
06
08
dc
e7
fc
f5
01
e5
f6
fd
df
05
1b
06
1a
04
0d
f3
e4
05
03
f8
fe
f9
f3
eb
d6
0d
01
f1
25
fe
16
0d
e8
fc
fe
00
08
01
f1
fa
cb
1a
01
ff
30
fd
15
f0
f0
ef
fb
fd
0c
10
10
f6
cf
10
e9
fd
22
fc
0c
eb
fe
00
05
f7
fc
11
05
f4
cd
00
d6
0f
13
fc
f6
e0
05
ff
fb
fd
fc
09
20
ea
dd
00
ee
01
02
fa
fc
df
ef
f6
f7
01
f5
0b
12
f8
e0
ff
f7
04
fe
00
11
ee
f7
01
f3
06
fc
fb
14
e9
e7
fd
f7
0d
06
03
0c
f0
fc
0b
f3
03
05
f6
03
fb
e9
07
f1
10
ef
02
14
f8
14
04
02
08
fc
e5
09
f7
ed
14
f7
01
f1
fe
0f
fd
0d
01
01
07
f7
eb
09
f4
ee
04
01
10
fd
04
f9
f3
0a
f8
f5
fc
01
e6
fc
f6
e7
11
02
00
ef
05
e4
e4
1b
f7
f1
03
08
f2
01
f4
ed
03
0c
00
f5
00
ec
db
0a
f2
f0
06
04
f0
e7
f1
fd
fe
0c
f6
0a
fd
f2
df
fc
f9
fe
0a
fc
e1
e3
de
f1
05
fb
f4
01
fd
f6
f7
07
00
06
0a
02
ee
ec
ee
07
ff
05
fa
0b
01
f1
ee
01
12
08
04
01
ee
ff
f0
05
fe
0c
0e
f5
02
fb
f6
00
06
fb
02
01
03
0e
fc
04
08
0f
0d
02
03
0a
06
02
ff
fd
02
01
fb
ff
02
0b
05
06
0e
f5
03
07
fe
fa
fb
04
02
02
ff
0e
08
f8
0d
fa
0d
0a
02
0f
fd
fe
fd
f6
03
04
00
0d
fa
f9
06
04
ff
01
03
0b
f9
f2
ff
fa
03
01
02
f7
f6
df
f7
f4
05
ff
05
00
f3
e4
f1
ef
02
01
0c
ff
df
d6
06
f8
11
00
01
0c
06
ef
fb
f9
00
fd
ff
fb
e4
c9
06
f3
0c
05
00
f5
02
fa
f5
04
f9
fc
00
f8
e0
df
0b
fc
16
f5
fc
04
0f
e7
f0
05
fb
fc
05
f2
f9
db
ff
08
ff
ec
06
03
05
e8
f6
02
fe
03
06
fb
09
cc
fc
11
00
f9
05
08
06
ec
f2
0a
f6
01
f6
ea
fc
d9
05
1a
fb
f4
fa
02
fe
e8
00
06
02
fc
ed
ff
fe
ca
10
0b
fa
0c
f7
03
02
e6
fa
0f
05
02
fd
fd
fe
ca
10
20
0a
0e
f5
00
fb
e9
06
07
fa
ff
05
09
07
cd
08
02
0e
1a
fa
09
f6
fc
f3
04
f9
03
0a
0e
04
d0
1a
ee
0a
1c
f8
f5
f7
fc
f4
f6
00
fd
0d
08
f7
e2
17
ec
0d
1f
fe
e6
f6
f3
ef
f9
00
fa
06
08
ff
f2
05
e3
11
0b
00
0e
ef
ec
fa
f5
fd
f7
fc
0a
f5
f8
08
eb
09
ef
ff
0f
f7
e2
f1
f6
06
f5
f6
0a
ef
f7
0f
ea
19
fd
01
07
fe
f5
f0
01
01
04
07
00
f8
00
02
e1
1c
f4
fe
07
03
0a
ed
f4
08
fc
f0
0d
e8
ef
01
e4
12
eb
fe
06
0c
0b
ec
f7
08
04
ec
f7
fa
f6
12
e6
14
e9
fe
ed
03
03
e7
f8
fd
0b
f5
f0
f3
f9
10
e0
0f
f1
02
fb
ea
0d
e8
e4
02
04
f9
f8
e7
f3
06
de
0a
fa
fe
01
e9
05
e5
ed
03
07
f4
e8
ed
ee
fd
e1
01
fa
fc
01
ea
09
ff
f2
05
02
ed
f5
e2
00
04
ef
07
00
ff
ec
fa
f6
0b
fe
05
fe
ea
f9
f2
f2
0d
f3
ff
01
02
fa
fb
06
09
fc
03
ff
fb
f7
0e
fb
1e
04
04
fc
03
fb
07
04
05
03
02
01
0b
07
fd
fb
17
09
02
01
03
13
02
f6
fc
fb
01
01
f9
12
00
04
15
f9
00
ff
02
0f
f9
ff
fd
f9
02
00
03
0e
0a
00
11
04
fb
03
01
11
fe
03
08
f6
03
00
f7
11
f9
e1
04
f6
0e
0a
04
0a
fb
ff
0d
f7
02
02
fc
03
f6
d3
0d
01
09
0b
05
0b
fd
f8
fa
f2
ff
fe
f5
fe
f1
c2
0b
07
11
fd
06
ff
06
f5
f4
f1
fe
fa
01
f8
fb
c2
10
fc
0e
0a
01
f4
ff
ed
04
02
fc
fe
07
f5
f9
b9
04
fe
1c
f8
fd
f7
f2
fd
f8
ff
fd
fd
10
fb
0f
c3
0e
09
1b
f4
01
fd
f1
f2
f0
f6
f6
fc
05
03
0f
c7
03
03
11
ee
f9
01
05
fe
05
fd
01
fe
03
02
04
cf
09
0d
0a
ee
f5
fb
fa
f6
03
00
02
fd
f9
06
1d
cc
0f
11
14
07
f5
16
f8
f6
fe
ff
02
fa
03
0c
18
df
0a
21
10
1e
fa
01
f9
ff
f9
01
fc
ff
01
0f
0a
ef
fe
19
ff
0d
f3
fe
07
01
00
03
f9
fd
04
10
16
f0
12
06
13
1c
f7
e5
fe
fa
fd
f7
f4
fd
06
0f
02
00
0e
e7
11
17
f7
ef
ff
dc
ef
00
ff
f5
02
07
11
fd
1a
e3
09
08
01
06
f4
da
f8
05
f7
00
f1
03
00
f8
16
e2
1d
07
07
01
fa
dc
fb
f0
f7
fe
fc
0b
fc
f3
0d
f4
0d
fe
ff
16
fe
fd
f9
ef
03
fe
fa
fe
ed
fd
14
ec
11
f4
fb
0b
0f
05
df
f8
07
03
f7
fa
f8
fa
0c
f6
19
fd
f5
0d
0c
f5
ed
f8
00
05
ff
f1
ee
fc
09
e1
16
f7
f5
fa
07
00
ea
fb
fc
03
03
f1
f0
01
0a
c9
ff
05
ff
00
06
10
e9
ff
fe
ff
ff
ef
ed
f3
0a
d2
03
f7
ff
0c
f4
0c
e5
ef
01
02
fc
f5
e8
01
19
db
02
0b
00
09
f7
f6
ee
f7
00
fc
e4
ea
fc
00
0a
e5
fb
12
01
00
f6
0e
f5
0b
00
fe
f7
ea
fa
06
1d
da
00
0a
03
fb
f5
ff
03
fb
03
fe
07
fa
0c
0a
1b
ed
0d
f2
02
0d
fe
f4
04
fc
01
00
02
05
0b
0d
03
09
09
f7
03
09
0b
00
fa
02
02
02
03
10
0c
07
06
03
ff
fd
03
13
fb
04
f6
f7
01
ff
fc
0c
f9
fc
13
04
ff
03
01
0a
fd
08
0a
f2
02
ff
02
03
00
e8
0b
fc
fc
1b
03
13
fa
f9
01
f4
02
02
07
ee
05
c7
07
0e
00
13
04
11
03
f9
05
ef
00
fe
fb
e5
0b
c7
15
0f
fb
06
06
ff
f0
fa
0c
ec
ff
02
06
e7
0f
bd
20
f6
09
04
ff
f4
ef
05
04
f7
fb
ff
10
e2
06
c6
04
fe
0b
00
01
fd
f9
fa
01
f0
fc
fa
12
e6
13
d6
03
fb
11
06
fb
f0
f4
04
10
fc
f4
fd
0f
fc
0e
e6
f7
f6
1b
f1
f7
0c
ff
fd
02
02
fb
fc
02
fe
0f
e6
00
0c
0f
e9
f8
02
fa
02
12
0e
04
fd
10
02
10
f4
f8
07
15
e7
fc
05
f7
01
00
12
fa
f4
06
10
1c
fd
09
23
26
fc
fc
ff
fd
f9
0e
03
f9
fc
fe
1b
19
03
0d
17
13
04
fa
f0
f4
f0
fc
fa
f6
00
0d
09
12
05
17
00
08
fe
f8
e3
f8
f6
fc
fe
f4
fe
f7
0a
0e
08
11
00
07
08
fd
f3
0a
e4
f3
f9
f4
f5
f1
06
15
ff
12
fc
0b
07
03
fb
fe
cc
ed
f0
fc
03
f5
06
1c
08
1b
e7
05
03
fd
0a
08
dc
f8
fc
fa
03
01
10
0c
0e
17
ee
0f
fc
00
1b
03
e3
ee
fc
01
06
07
f3
04
06
0a
f9
02
ff
fe
1a
0a
ef
e8
ff
0a
06
ff
fb
07
03
01
03
fe
fc
f6
01
1b
f7
fc
fb
04
04
05
fb
fa
07
02
ef
f7
0d
fb
f5
03
fb
ec
f9
fa
05
0c
eb
e9
01
f6
de
f7
02
fb
fd
0b
16
03
00
f9
fc
ff
e9
ee
fa
05
d5
05
0c
04
09
03
09
f2
0d
fc
02
02
e8
ee
fd
04
e0
ee
11
ff
fd
f3
15
0b
03
01
fd
02
e3
0c
f8
11
e8
08
06
02
07
0b
0d
06
0f
02
00
f3
ee
10
f1
0c
f1
fa
09
04
0e
02
04
fe
08
01
01
f7
fc
12
05
1c
f6
05
06
03
08
00
01
f1
00
02
01
fe
06
0c
fe
16
0c
09
fb
02
0a
f9
fb
07
fd
02
01
05
12
03
04
04
fe
fb
01
03
05
fc
fc
05
07
02
01
fb
01
01
fc
04
0a
02
12
02
11
0b
fe
0c
fe
02
01
06
07
0a
fa
0b
f9
eb
0d
01
0a
fb
12
0a
00
02
06
f7
ef
14
d5
0e
13
f1
18
02
01
01
0e
0c
fc
00
03
04
e3
14
cc
0f
0f
f1
17
00
03
f4
fd
00
f1
ff
02
04
de
11
d7
10
06
ed
0d
fe
06
f7
00
f9
fa
00
fb
0d
d4
18
e4
07
fd
02
f4
fd
03
ec
02
0d
ed
fa
f9
00
de
18
f4
fa
0b
f9
f6
fb
07
f2
01
14
fb
f9
fd
15
d6
19
fd
fe
ff
07
01
f6
06
fb
06
0b
04
ff
fa
08
e1
16
fb
fe
06
ff
f6
fd
01
f9
00
13
00
fd
f3
05
e6
0e
ff
fe
11
05
e0
f6
fe
01
fc
13
fc
fd
f0
02
ee
11
0b
f6
21
01
df
f8
f3
f9
06
05
0b
f9
fe
0b
fb
ff
0c
0b
1b
05
dc
fa
f8
f8
f9
01
fc
ee
f6
09
ec
0d
11
11
1a
06
e5
f6
e4
f4
ef
f5
05
f1
06
fd
03
24
01
0d
fd
f7
f5
03
eb
fe
cd
fd
f9
ff
fc
02
f5
1f
08
0a
fb
02
07
fd
04
f6
c9
f3
fa
ff
ff
f3
f6
1a
fe
06
f1
ff
fc
01
0f
02
ce
df
f2
f9
02
01
0c
1c
0e
0a
f5
f5
09
ff
21
0b
e2
e1
f1
fc
04
01
04
17
11
0e
f2
f3
07
f9
1c
22
f5
e1
ff
04
03
08
f5
19
06
06
00
f7
05
f7
0e
18
03
f5
04
06
fe
14
f9
0a
fb
05
e9
ef
fc
f5
0f
12
fb
07
02
00
fc
15
e4
1f
f9
04
e6
f2
12
04
06
10
11
07
08
f8
f8
0c
f1
07
f5
0c
f5
fd
17
04
01
0d
0d
fe
08
01
fe
fc
ec
0b
ff
13
f0
fb
1a
03
0e
fc
0e
0a
10
04
ff
08
e4
16
07
1b
f1
fd
00
03
01
05
14
fc
06
03
ff
06
f5
0f
02
1c
e9
04
05
05
01
08
15
f4
01
02
03
f8
00
0c
0c
29
08
fc
03
03
08
ff
ff
01
04
02
00
09
fe
17
0e
14
02
ff
f5
03
0e
05
f8
fb
fa
02
02
0c
08
07
00
0d
03
08
09
02
07
06
f8
03
fb
02
00
04
0a
02
01
0d
0c
f2
1a
04
0a
09
05
07
01
02
03
06
08
17
f1
fd
00
ed
0d
03
0b
0c
08
00
02
02
08
f0
ed
1c
e4
0a
ff
ce
1a
05
01
fb
ff
ff
ff
02
07
fd
f1
17
ea
00
08
ce
18
04
14
02
05
e8
fe
fe
07
03
de
1f
e8
08
10
ca
0a
04
10
08
04
f1
02
fd
fc
13
dd
1d
09
fd
0d
d7
0d
01
0b
02
fd
f9
f1
f9
fa
08
cb
19
07
fe
f5
c7
08
fd
08
f3
05
ff
05
fc
01
fe
c6
0f
1f
f1
02
d7
06
f7
09
01
0a
0a
08
fc
00
0f
d2
05
14
fb
ff
d5
f3
f7
04
fd
fa
fd
05
ff
02
0b
d9
08
14
fb
0b
db
f5
fa
02
fa
06
1f
f8
fa
f0
f8
dc
01
15
ff
0e
db
d9
02
ff
fd
05
1d
f4
f7
f9
06
df
f9
04
01
19
d5
e4
ff
e6
e7
e7
fa
fe
f5
05
fc
db
01
05
fe
06
e1
e7
f7
e3
f3
df
f7
f8
fc
03
02
f3
13
07
10
09
f0
ee
fd
00
fd
bd
e3
f8
fc
02
05
e3
1e
02
0d
04
fb
00
fd
17
f8
b6
ec
ef
fb
05
ff
f9
1c
05
00
f3
e9
fe
00
1c
0d
d3
ea
04
fb
00
00
f3
13
0c
0c
fb
f5
06
fe
19
17
eb
e2
fa
05
01
0c
ec
16
0b
0c
f0
f2
04
f7
26
18
0a
fa
f7
08
f9
ff
f3
19
0e
12
fb
ea
f7
fa
13
17
19
fe
05
05
f4
0c
e6
1e
ff
05
f3
e7
06
fe
08
0a
13
19
12
fb
f4
05
e9
24
02
0c
f7
f0
0c
ff
0f
07
0e
15
fd
f5
f8
08
e7
22
fe
02
eb
f9
11
06
08
10
0c
0e
11
02
fb
09
ed
27
fa
13
eb
eb
10
08
00
0e
10
17
1f
02
02
08
f2
25
00
1b
f5
03
fe
05
0a
0e
0d
06
09
03
03
fc
f9
18
06
27
fb
08
f9
05
06
05
07
03
fa
02
02
00
f5
13
fe
17
0c
0b
04
03
0e
ff
f6
f9
fa
02
02
f8
07
10
0f
20
04
11
fc
02
14
00
03
fe
05
01
01
02
01
08
fc
07
05
fd
fe
02
03
08
f8
fc
09
02
00
09
00
09
07
11
00
fb
19
03
0b
0d
03
fd
13
01
02
02
03
1c
01
01
0c
ee
22
04
0e
1b
10
f8
01
03
06
f6
fb
12
fb
fd
08
d5
14
07
06
18
f7
e7
f6
03
06
ff
f5
08
0f
fd
0d
ce
0a
08
18
fe
f9
e6
ed
01
05
f7
eb
17
07
fb
0f
b8
fc
08
09
11
fd
d6
fd
f4
07
0b
e7
18
0e
f7
f9
b2
fa
fe
0f
fc
fb
cb
fd
f8
00
02
e4
15
0f
f0
f3
aa
fe
fc
13
f4
fd
ba
04
fd
03
fc
da
03
04
ec
fa
ae
ee
f5
03
09
f4
c9
f2
02
01
fa
dc
16
11
08
08
b3
fc
f2
12
f8
ff
ce
f3
f8
04
01
e4
ff
fc
ff
07
c0
e4
01
02
ef
04
e8
f6
f5
00
08
db
07
0d
fa
0e
bf
f2
fb
fc
00
ff
de
ed
f8
00
05
dc
fe
0b
0c
14
d4
f6
fa
ed
fe
e4
e8
f6
f7
03
fb
db
10
08
04
17
ec
f6
f7
ee
04
c8
df
00
f8
07
ff
ed
14
05
0a
0e
ec
fa
00
09
06
c7
d7
03
fc
07
fd
e7
1a
0a
0c
03
ee
f8
f8
11
11
d9
dc
f2
fa
05
ff
f1
15
ff
0a
0f
e3
f9
f7
22
0e
f9
e8
fe
fd
04
ff
ea
24
08
13
fa
ee
f4
f5
16
1a
0d
fe
03
03
fc
f8
e3
1a
02
1c
03
e9
f6
f5
0b
13
1a
04
0f
ff
fb
0a
ec
1f
0a
00
f2
e2
f9
03
08
fe
23
12
00
03
f2
01
e4
16
04
05
f1
e4
09
03
11
ff
15
18
12
fb
f1
ff
fa
20
02
05
f2
f9
13
05
17
02
06
1a
01
fa
fa
f8
f1
19
f7
fe
fd
ef
06
05
01
1c
17
04
06
fd
fd
fc
f2
1f
00
0c
f9
f9
03
0a
05
10
12
10
0f
05
04
ff
ef
29
fb
13
f4
f9
f5
06
07
1b
10
fb
05
02
03
04
eb
12
0e
21
00
0e
fd
04
0c
0f
0e
fb
04
02
01
f3
f4
1c
0f
20
07
12
00
03
0e
0f
02
04
0a
02
01
02
0e
0a
fd
18
fd
ff
f4
02
12
fb
ff
f7
fe
02
00
08
0c
0a
fa
09
01
fa
fa
01
14
0b
fa
06
fe
02
fe
00
0c
0b
13
0e
09
f1
14
01
ff
1c
06
05
10
02
01
fb
03
15
12
00
01
e9
1b
02
0e
18
0f
f7
06
03
05
08
06
fe
05
fd
0f
d8
15
07
14
18
fd
ee
0e
05
01
00
f7
0e
0f
fc
07
c6
0c
0b
10
0f
f7
da
01
02
04
01
fb
11
1a
00
05
bb
04
05
16
01
e8
ca
10
fa
08
fe
f7
06
14
f2
ff
c0
fa
fc
15
fd
fa
c4
0a
fc
01
fa
ed
05
05
f6
07
c0
e7
fd
0e
02
fc
bc
02
01
03
00
ea
12
02
01
0f
cf
f3
fc
10
0a
f7
9b
04
f6
03
08
e9
05
f8
fc
0a
d0
ee
fd
08
0c
f1
96
05
f4
0a
03
e8
0c
f6
06
fe
d4
ee
fc
09
03
ef
9c
f0
fa
07
f6
e6
fd
fb
f8
0d
e0
fa
fa
f9
09
ed
9c
f2
f7
08
05
e1
f6
f6
ff
15
ed
fe
02
e9
10
e9
b1
0d
fc
02
f6
e4
04
08
f9
13
dc
fd
ff
05
17
d6
b7
09
fb
02
fd
dd
09
04
06
05
e9
e7
fb
14
0d
d5
d8
11
ff
06
fb
d9
0d
09
00
15
e0
f6
fb
25
15
0a
ef
0e
f7
00
f7
df
22
00
0b
11
ef
f3
f8
1a
10
21
fe
12
f9
fc
f4
e3
1d
06
fd
f7
e2
f9
fd
15
15
24
0b
1f
fc
f7
02
e3
1d
08
0f
08
ec
03
fe
11
10
23
0e
1b
02
f6
05
eb
1e
08
f3
fe
f7
08
07
00
05
23
10
19
fc
f8
ff
ec
17
07
f2
fd
e3
fc
0a
06
05
14
15
06
01
f6
0a
fa
18
01
f5
f2
f5
08
02
01
04
17
0d
16
ff
fb
fb
fd
1a
16
0e
fb
f4
13
08
f5
08
0a
12
13
fc
00
ec
04
21
0c
0e
ef
fa
fc
08
04
1a
10
0d
1f
01
01
f8
f7
19
04
0c
f4
03
ff
07
fe
0d
0d
f8
19
01
03
f2
f0
28
08
10
fa
10
f9
05
0a
fe
0a
04
03
02
00
f8
01
18
0b
16
ff
0b
02
03
06
0e
09
03
0a
02
01
06
10
0f
07
0f
0f
fc
fa
03
15
03
fe
fa
0b
02
ff
fc
04
0c
01
15
0e
fd
fe
00
00
0a
f7
03
0d
01
01
fd
0a
01
03
07
0d
f6
0f
01
0d
11
fb
03
10
03
02
f9
00
0e
10
05
09
f0
02
04
0f
10
f9
fa
14
02
02
08
0f
01
11
0a
00
dd
13
07
ff
21
fd
ee
1a
05
04
07
ff
05
05
fb
0c
ef
0d
07
18
16
fb
fb
15
03
02
15
03
06
15
f0
0e
df
fa
ff
0c
0e
f5
e1
20
07
02
0d
01
13
15
e7
fd
e2
07
fd
0d
05
f0
cd
0e
02
06
0b
f4
02
fe
fd
02
fe
01
fc
0a
1b
ff
bf
10
fa
02
f9
00
0b
07
03
04
f9
00
f8
f8
13
e7
be
17
f7
01
f6
f8
fc
04
fe
04
fd
f5
04
ff
20
ee
aa
0a
f4
06
04
06
0d
07
f2
05
fa
09
02
e1
26
ea
9e
12
f7
04
04
f6
f5
00
ff
0d
f7
04
f9
e7
1b
f5
b5
0b
fa
02
00
f9
fe
fe
f2
0c
ea
06
02
ec
32
f8
c1
0f
fa
04
08
e5
fa
00
f0
12
ea
0c
f5
05
1f
f4
d9
1d
fd
01
13
ef
03
03
fa
0b
e9
fa
f8
21
25
0f
f5
1d
fe
00
fd
e9
01
f6
fe
fa
e1
f4
ff
1f
20
19
04
22
fd
f3
ff
da
0e
01
ff
0e
dd
fd
00
0d
0c
30
13
1a
fc
fd
ff
e0
09
f0
fa
0e
f0
fb
02
06
10
32
07
1e
fa
f9
fc
e5
fb
01
f1
fd
f6
09
01
f4
13
27
0b
1d
fc
f9
f5
e9
08
01
f0
f5
ec
ff
02
f5
0a
1f
12
16
fd
ff
f7
eb
0a
0a
e7
e9
e8
fd
0a
ea
18
15
06
21
fd
fd
fe
f9
0e
11
f7
ec
e9
05
0d
ef
02
1f
0d
24
fe
fb
fe
f7
1a
07
f4
ed
fd
01
0b
f1
09
17
09
1d
fd
02
e2
08
18
0b
f4
f6
02
f0
09
0c
1f
1c
07
15
01
01
e9
f6
16
08
f6
02
00
01
04
09
1e
02
fb
06
02
02
fe
f5
21
0e
09
0b
0b
f1
04
10
0d
0e
01
01
01
00
fc
f8
0f
13
0a
0b
0d
01
02
0d
00
03
f9
03
01
02
f9
07
10
05
06
07
0f
f3
03
07
fc
03
fe
ff
02
00
fc
08
ff
0a
0c
08
0b
fd
01
10
05
02
0b
10
02
fe
03
0f
04
12
0d
02
fa
02
01
0a
18
08
13
14
01
fd
02
0b
03
05
05
fe
e9
05
03
10
1d
0e
11
1e
04
00
00
0f
0b
04
fc
0c
e8
04
07
02
27
fd
f8
28
01
01
fa
0c
0c
0b
05
17
fd
01
04
fb
27
f5
f1
34
04
03
0a
08
fa
08
f1
11
06
fa
05
0e
28
06
e9
25
08
06
fc
04
fa
16
ee
ff
0e
f7
04
0a
27
fb
ee
16
08
04
f8
03
fb
0f
e4
08
00
07
fd
f8
1d
f5
f3
21
fb
fc
00
ff
ff
fc
eb
fb
15
fa
fe
ea
1f
ff
f0
1e
04
f9
04
f7
03
02
ee
0d
0e
fd
00
d9
29
fc
e8
2b
00
f7
09
fc
fa
fe
e4
0c
0e
01
fd
d7
26
ef
f0
1f
00
fb
01
02
ff
07
f2
00
ff
15
fe
f3
23
f5
fd
23
fb
fb
08
f9
fc
f6
ef
01
f0
11
00
f5
26
02
08
1b
fc
f8
fb
f3
fe
07
dc
0f
e4
fc
f7
1f
28
1e
09
11
01
ff
03
ec
f2
f9
eb
02
ea
f3
fb
23
1b
28
0a
1e
fd
f5
ff
e6
fd
f2
e8
07
e5
ec
03
18
22
28
05
20
03
fa
f1
dd
06
07
e2
01
e6
ff
ff
03
0e
2b
07
2c
03
fa
08
f1
fc
03
da
06
ec
00
02
02
11
23
07
23
fe
fc
f6
f5
0c
e9
e4
05
e0
0a
04
eb
0e
25
05
26
fd
04
fe
e8
0d
fd
dd
f8
eb
ff
0e
ef
05
10
00
24
03
fe
ff
ed
f5
fc
d3
f2
f5
fc
0a
e0
05
1c
04
1d
fe
fe
08
e7
08
0f
db
f8
f5
fd
07
f2
12
04
ff
12
ff
00
fa
05
01
01
d5
00
f8
ec
07
eb
09
03
02
1d
ff
ff
f8
05
0c
04
e6
fb
0e
f9
04
04
1d
01
08
0c
02
00
f3
f7
11
15
ef
0e
ff
f3
02
0d
0c
0c
0b
14
02
01
f1
fc
06
14
01
03
08
fd
04
12
10
fe
02
02
02
01
f5
0b
0a
0d
fe
fd
11
fa
02
0e
08
fe
00
09
02
02
01
05
06
fe
0c
08
0d
fd
02
15
03
ff
f5
06
02
ff
03
00
fe
0a
11
0f
05
f5
03
11
11
fb
08
06
02
01
08
09
02
00
06
0b
05
f5
03
13
13
ff
11
1a
02
01
f9
0c
08
0a
0f
fc
f8
fe
04
0d
19
fa
12
26
02
fe
f8
14
00
02
04
fa
f8
01
06
fb
22
00
09
15
03
fc
fc
11
fe
0b
ed
0f
1a
f8
04
fb
1f
f7
02
1c
01
f9
f8
11
f1
10
e4
12
17
00
03
f5
20
fb
fa
25
03
00
06
0e
f5
04
ea
0c
05
f8
0a
ef
21
03
07
25
05
02
04
07
ed
f1
d4
06
0f
04
05
f7
1b
ee
02
29
04
fe
fd
03
fa
01
e4
10
0f
01
02
e0
20
fb
0a
2b
fe
f8
f5
fa
01
09
d7
10
12
07
00
d9
1a
f0
09
1a
00
f6
0e
01
fc
f5
de
0b
04
ff
fc
ea
18
f4
1e
24
fb
f3
f4
06
f7
fc
ef
07
f4
0b
fc
fd
1b
0b
1d
12
f9
f6
fe
f0
f9
00
ee
f4
f3
0a
f9
0d
0f
1a
1d
20
fd
f4
0a
e9
ee
fb
d5
f0
f5
00
fe
11
16
2b
1d
0f
ff
fd
08
fe
f2
01
e1
08
e9
f7
ff
0f
18
26
0e
19
f9
f6
0a
f2
02
01
d9
04
ed
04
02
05
18
1d
17
25
f9
f7
00
e3
f1
fe
d1
0d
ea
f3
fc
0a
fc
1e
0d
1e
fe
00
ff
f1
f2
f4
d8
0d
ed
fe
04
04
fd
20
00
20
01
ff
00
04
e8
01
c4
06
f0
ff
01
f1
fb
14
09
11
fe
fe
f6
ff
fb
f6
cd
f4
f2
fd
00
f1
f3
0c
ff
0f
01
01
fb
fd
e7
f0
c9
f6
ea
e4
07
f9
fc
0a
04
06
ff
02
06
fe
f0
00
bd
f0
f0
e9
04
fa
16
0d
06
05
00
fe
fb
02
e8
ef
c3
f9
09
ed
08
f9
12
05
06
10
01
00
ef
03
f5
0e
e0
07
fe
ec
04
04
08
00
09
0e
01
01
f7
fa
fb
14
f0
06
04
f9
02
03
08
06
fd
0b
02
02
01
03
f2
14
f5
01
07
01
03
11
04
08
f9
fa
01
ff
08
03
01
01
0c
fe
09
00
02
06
fe
fb
fc
f8
01
00
07
05
fc
08
01
03
02
f6
03
16
fa
f5
f2
02
02
00
0f
0e
0a
03
07
fb
11
f1
02
09
0b
fb
f7
fb
02
00
08
05
0d
03
01
09
fb
f3
03
09
0e
06
0e
06
03
00
fa
07
00
0c
12
f8
09
fa
04
ff
1d
08
1d
0d
04
fe
05
13
fc
fb
01
f9
fc
02
06
ff
10
03
0b
13
05
fc
f0
0e
f5
02
f1
f6
06
ef
05
f5
18
f8
15
0c
04
f6
f0
17
fb
07
dd
fe
16
f3
07
e6
18
fd
0a
1a
02
f9
09
07
ea
fb
cc
fd
0a
fd
07
f8
0c
fc
0e
1f
07
fc
f9
fc
04
02
d5
05
13
07
0b
eb
18
01
13
13
00
fb
05
09
fa
01
d1
09
07
ff
01
db
10
ef
1d
09
fa
f3
f9
f8
fe
03
cf
11
fe
fa
ff
e7
10
00
1f
23
f9
f5
05
0a
0d
f3
cc
fb
fb
09
fa
f4
fe
05
26
10
f5
f8
00
13
f8
fb
d2
0b
f5
f4
fd
03
0d
14
25
17
fb
f4
ff
fc
fe
0a
c8
08
fa
f6
fa
ff
12
12
14
25
f8
f7
fb
f8
fb
fc
d8
05
ee
fb
00
17
06
27
1d
1f
f7
f9
fd
01
ef
f3
ce
fc
fc
fc
fb
18
04
1e
0e
20
fb
fb
13
f1
03
f1
ce
fb
ef
0b
04
10
03
20
10
11
fe
fa
fc
e2
ea
f2
cd
02
ef
08
00
12
01
15
06
08
fe
fc
01
e7
dd
07
bd
05
01
fc
01
fa
f4
0b
03
f5
ff
fa
f7
f1
e3
fc
c3
14
f2
ff
02
08
08
0c
05
fb
ff
03
09
f2
e4
fd
c3
0d
fc
fc
03
ff
01
0a
fd
f0
01
01
02
f8
ee
fc
c6
01
fe
e0
01
fa
04
03
06
f5
ff
ff
01
fa
e8
ee
c4
ff
f9
eb
04
00
fe
fd
ff
0a
01
fe
f9
f8
f8
ff
cc
0d
0c
f6
06
10
04
0b
09
03
03
ff
f5
fd
e6
01
e3
00
00
fd
03
0f
00
f8
f8
06
02
01
f8
ff
f8
0a
eb
04
0e
f7
04
15
0b
04
fd
f6
02
02
0d
04
f0
00
f2
ff
fc
02
04
15
fd
07
07
fe
02
02
fc
05
02
06
f9
fe
07
f3
03
0b
07
fe
02
07
02
00
05
0a
0a
fe
03
02
06
fa
02
12
05
f7
05
ff
02
00
00
09
fc
05
ff
0d
0b
f9
02
08
07
ff
08
00
02
01
fd
08
fe
fc
0a
09
0a
f5
02
17
01
02
03
fa
02
02
06
08
fa
02
09
05
0e
ff
02
07
06
05
07
ff
03
ff
06
10
00
0e
fa
0b
04
fc
03
05
05
fc
09
0f
05
fc
fb
00
01
0b
fd
09
0a
fa
05
f1
06
ff
14
02
04
fa
f7
09
f1
05
e9
fd
10
fd
04
f2
12
ff
0f
0a
06
fc
02
02
f6
00
dd
05
03
fa
06
e9
fd
fc
13
03
04
f7
06
05
f2
fa
cd
0c
0c
07
09
ec
f7
09
15
09
fe
fa
fb
05
fe
05
d4
0e
fa
fd
06
ea
f5
fc
1d
04
02
f9
f5
09
ee
ff
c7
0f
02
02
03
fd
04
09
1e
12
f9
f4
fc
08
f6
01
cb
10
01
f8
08
05
f2
15
21
12
f5
f5
04
fd
02
04
c5
fe
fe
f4
06
fc
f4
1e
1c
0a
f2
f1
04
fe
f2
ff
c6
0a
fe
e7
04
01
f9
21
19
05
fc
f5
ff
f0
ff
02
c0
0b
f8
fd
00
16
e9
0b
09
05
fc
fb
11
f6
ee
f4
bc
02
f4
0a
01
0d
f2
21
0d
fa
f8
00
00
fa
f4
f9
c2
0a
f6
12
03
0b
ec
23
0a
fb
fd
ff
08
e5
ea
08
c7
04
fc
11
00
fe
ec
21
ff
f6
00
fa
0d
f8
e9
f7
ba
1c
00
02
04
09
ea
15
13
e3
04
f9
ff
eb
e0
01
c7
0f
ef
f6
04
00
f7
1b
0b
e9
02
00
0d
f9
f3
00
cd
0a
fe
f1
fd
fd
ee
0b
08
e3
02
fd
12
f6
dd
f1
d7
06
ff
eb
fb
ff
fd
f4
fa
02
00
fc
ff
ed
d7
07
dc
0c
ff
f7
01
08
fe
f4
f9
f2
01
01
0f
ed
e1
09
e0
02
f8
f9
01
11
05
fd
f9
ff
03
01
06
f7
e5
03
e3
0f
0c
04
02
0f
f9
f6
fc
f3
01
00
07
07
ea
01
ea
0a
fd
04
02
0d
0c
fa
f2
f4
02
01
0b
0e
fe
0c
03
03
09
fd
03
12
f7
06
f8
f9
02
02
0d
fd
0c
0b
03
10
0a
f7
03
13
f9
02
04
f6
01
01
0a
04
04
0b
10
05
03
07
02
0f
08
06
f2
fa
02
02
0d
0d
02
0c
03
06
0b
05
02
14
02
fe
01
fa
02
00
fd
05
0b
06
09
0d
fd
01
03
17
fc
fa
04
fc
02
02
f9
00
0c
02
0f
06
09
f6
03
10
01
08
fe
f9
02
02
05
07
fa
0c
0e
01
00
04
02
0a
fb
01
0a
0a
02
01
04
0c
f8
03
fd
06
01
f6
01
00
f5
08
11
06
02
fd
f9
fb
04
0f
f5
f6
02
fc
02
ec
ef
06
1a
f9
04
fc
02
fd
fb
0c
e8
01
0d
fd
05
eb
f2
11
1f
01
06
fd
f7
0b
ec
0c
e0
07
fc
fa
04
f1
f0
0a
22
fe
fd
fc
fc
0d
f1
0a
ea
05
07
e7
04
ed
ed
1d
15
f7
fd
fc
eb
09
ed
fc
d6
0f
f7
e2
06
fe
de
1f
1a
03
f9
fc
f7
18
f1
fd
d0
0e
f5
f7
06
00
ec
18
16
f9
f9
fa
ef
00
f3
fa
d4
10
f4
f1
04
ff
d8
1b
10
03
f9
f5
ee
fd
f8
f8
d3
0f
f7
f1
01
0f
d8
1c
0e
e6
f8
fe
06
fc
e1
01
cc
ff
0a
0c
01
15
ce
0e
01
d4
fa
02
fb
f8
fe
f2
d5
0d
fd
09
01
06
d4
04
0e
d8
fe
07
09
06
ea
f9
ca
12
f5
13
02
09
da
11
0a
ce
fc
03
01
f1
f8
f7
df
0e
fb
fe
ff
05
e9
0f
03
d3
02
fe
f7
04
ef
f7
d2
10
fb
04
ff
0c
e9
05
04
d3
02
fb
08
f9
e6
fa
d2
15
fe
fd
fe
0d
e7
09
0d
d3
02
fb
09
fa
eb
0c
dd
16
0a
fb
fc
0c
f0
07
f6
e7
00
ff
fe
ff
e9
0f
dd
0f
fb
f5
fd
12
f1
fd
f7
f1
01
fe
09
f0
e0
fc
e7
11
03
f5
ff
07
ff
01
fb
ee
01
00
0c
00
f1
05
e0
07
ff
01
02
10
ff
fc
fd
fd
02
02
ff
ff
ec
0b
f9
08
00
f9
02
1a
08
fd
f9
ee
01
01
03
0d
f0
0a
ef
fd
0a
05
03
0d
ff
fb
03
f4
02
00
fc
ff
05
f7
0a
fc
13
fe
03
12
f8
fc
01
f8
02
ff
08
07
0c
fe
00
04
00
fb
02
0b
03
f8
f2
f2
02
00
fe
04
00
fa
14
fd
0f
f7
03
11
06
04
02
f3
01
01
10
11
06
fa
09
08
03
f3
03
13
0a
07
f5
fc
02
01
0c
11
03
fd
11
0c
06
fa
03
11
05
02
05
fc
01
02
0c
0b
0e
08
07
06
10
f3
01
14
04
ff
0a
05
01
01
05
10
fb
0c
01
f7
03
fa
01
07
09
fe
07
02
02
02
fc
16
f7
0a
03
04
04
f6
ff
05
f9
f7
07
06
02
00
01
02
01
0b
05
08
fb
f2
00
fb
fe
05
0e
f8
02
00
fc
0d
f9
02
fe
fe
08
ed
02
f0
f6
ff
11
f8
03
ff
f6
18
f2
f6
f9
f1
03
f5
00
ec
f7
0b
12
f3
00
ff
ec
07
f9
06
ef
f8
f6
f1
00
00
f3
12
0d
e9
fc
01
fe
04
f9
02
f1
11
fc
ea
06
fb
e0
1a
20
de
fa
02
ee
16
e4
fa
ed
04
f6
ef
01
0b
ea
16
05
d0
fb
00
ea
05
e6
0e
dc
08
fd
06
03
02
ec
09
09
da
fa
fc
ed
ff
dc
0c
d8
0f
fc
0b
03
f9
d7
18
f7
d2
f9
ff
f7
09
e2
03
e7
07
01
f8
ff
f7
e0
02
04
c9
fd
ff
f3
03
eb
04
e4
fc
f2
06
00
02
de
01
11
cf
ff
03
f0
fb
fa
03
ed
04
f5
06
fa
ff
e5
fc
05
c2
00
00
e5
fa
fc
0b
ec
f1
ff
f8
01
09
eb
03
06
db
02
ff
f4
06
e0
01
e4
00
00
ff
01
04
f3
03
08
e2
ff
fe
ee
ff
df
05
e8
f7
f9
f9
ff
11
ee
fd
f7
ea
04
01
f9
08
ed
0f
f8
fe
05
03
01
02
ea
f8
f5
e8
04
01
02
00
e7
fe
f2
0b
07
fb
02
0d
fc
f3
fa
fa
02
01
fb
0d
ec
02
e5
ff
01
fa
00
16
01
f6
07
ec
02
02
00
09
ff
f5
ed
fb
09
f5
02
12
fe
fa
f8
f0
02
01
01
06
00
0a
fe
06
10
f7
02
19
0b
ff
fa
05
02
02
0a
05
06
08
fe
10
11
00
03
0c
0b
f3
f1
f6
02
03
02
ff
04
0c
10
01
09
02
03
06
00
f6
f2
07
01
00
04
fe
10
0b
12
fc
0b
fc
02
16
02
06
05
02
02
00
04
06
0a
0c
11
0b
04
07
02
12
03
02
05
01
02
02
0d
ff
09
f7
14
0e
10
f5
02
16
ff
fd
f8
fc
01
02
10
fe
0e
f8
13
fe
04
01
03
08
fe
fe
fa
01
01
02
07
0e
00
fa
13
fe
01
06
03
06
fc
00
ff
01
02
01
06
04
0d
0e
0a
08
09
fb
02
05
fb
01
06
f9
02
02
01
0a
05
02
12
05
0a
04
02
07
06
fa
f8
05
02
ff
04
08
0b
12
09
f8
fb
f9
01
0b
f8
00
00
fc
01
00
07
08
f9
10
08
f7
0f
f0
00
fd
f6
f7
07
f3
01
04
ff
0d
f0
15
f8
f2
05
f3
00
03
03
f8
08
f2
00
03
fb
09
fa
05
00
ef
f3
fc
ff
0b
fa
fd
11
e7
00
03
f6
11
e7
0b
ef
f9
f7
f4
00
18
00
fd
1d
e1
00
02
f6
1a
e6
02
f0
f5
07
ff
01
03
03
0b
19
d9
ff
03
ea
09
eb
09
ea
f4
fc
04
01
15
f7
01
08
db
00
00
f0
0f
e5
03
f2
f5
fc
f7
03
08
f9
fa
1a
d7
ff
fe
e5
18
e0
0d
f3
da
fe
f6
fe
0a
02
f8
1d
df
00
fd
eb
12
e3
05
f1
ed
f0
fd
fd
05
f3
fb
17
eb
01
fd
e4
07
e1
09
f6
eb
01
f6
00
13
f6
f2
16
f1
04
fd
f1
02
e6
0e
e4
eb
ff
f2
02
04
fa
02
14
e3
03
02
f2
06
f8
08
eb
f3
07
f3
02
13
fa
04
14
eb
04
02
f7
05
f0
06
fc
f4
fb
f4
01
09
fe
f5
00
fc
06
02
f1
12
ee
02
f2
ed
11
fd
00
1a
01
fa
f6
f2
02
01
fb
0b
fb
0b
f3
ff
02
fc
03
14
f7
f1
fb
f7
01
01
0b
10
00
08
f6
0a
14
f8
03
07
ff
f6
fc
01
02
01
07
0f
ff
f4
0b
fb
fe
f2
02
10
0a
f6
f6
05
01
03
0e
12
09
fd
01
03
ff
02
03
11
fb
05
f2
01
02
02
0f
0a
ff
f8
ff
02
0f
f7
02
06
fa
f4
f3
ff
01
00
10
09
06
ff
11
ff
09
fb
02
11
f9
07
fa
fd
02
02
0c
06
08
04
03
0a
09
f4
03
19
08
01
05
fd
01
03
0e
10
06
f7
09
fb
16
02
07
14
03
ff
06
ff
05
ff
fc
01
01
0d
08
11
03
06
04
0a
03
f6
04
fb
10
fe
f5
00
05
fb
fa
0e
0a
f6
04
10
0a
f6
09
07
0e
01
eb
01
f2
00
06
0c
04
08
fc
17
fe
08
0b
0e
0a
04
f9
fb
f8
01
fb
06
05
09
00
14
fa
02
09
08
14
0b
f9
08
fa
04
0b
01
14
09
01
10
0d
08
ff
0a
06
0a
fa
01
f2
00
f9
03
09
fb
fe
17
08
fa
04
0f
09
05
fa
fc
f3
fe
0a
15
10
06
ff
0a
06
04
f9
0c
02
0d
fb
fe
f3
0c
04
11
08
fc
04
16
02
fa
fa
0f
07
ff
fc
fd
fc
07
fe
05
0c
04
0d
18
fe
08
ed
1a
0c
14
f9
f8
fb
0c
0b
10
06
0b
00
03
03
fc
fb
11
fc
06
f0
fc
f8
07
fa
14
13
03
fb
12
0d
00
fd
0c
0c
06
f1
fb
f8
ff
fd
0c
ff
04
08
14
fb
ff
fc
18
07
0b
fe
09
f5
0a
01
04
08
00
0c
15
0c
00
fb
1e
ff
08
fb
09
fe
f9
03
06
10
fd
f6
1e
fd
09
07
1d
fd
0d
f6
07
f7
fc
06
05
00
0a
08
1c
06
0d
08
1b
00
08
fe
0b
07
07
f5
0b
05
f8
0a
17
0c
07
09
21
07
11
f4
fd
f7
fc
03
fd
0b
02
05
1d
0a
0c
f7
17
fd
07
f3
02
f7
01
09
fe
12
ff
0a
17
05
00
f6
18
01
04
f3
10
f4
08
fb
07
09
fd
fe
10
09
03
f7
06
ff
08
fe
14
f2
0c
02
00
01
f6
fb
1a
06
fb
ff
0f
12
0c
ef
0d
07
fd
00
0d
01
fb
0e
19
0a
f5
01
0f
0f
0f
fa
0c
00
fb
01
0f
0d
fb
09
10
0f
fc
0b
0c
ff
08
f6
fc
01
fc
01
0d
14
01
fc
16
07
08
00
fa
00
0f
f3
08
fe
06
f8
14
01
04
fc
06
fc
05
fd
0e
04
03
ed
04
fa
01
fb
03
04
f6
07
07
f9
01
05
05
12
06
fc
fb
01
0a
0a
14
03
fb
0b
07
08
f8
06
05
12
fe
fa
fc
f2
00
0c
07
02
f5
0d
0e
f9
fb
07
05
10
00
fc
06
f6
0c
01
14
0c
07
05
15
0c
04
01
04
0d
ff
fe
fd
f8
fe
0b
02
11
f6
0a
14
fb
0c
fd
fe
01
01
ed
f8
f7
05
fc
11
02
fe
08
17
f9
01
fc
0d
08
0c
fc
fc
ff
fc
0b
15
0a
fe
08
18
0c
fb
0e
08
13
02
f8
05
f8
01
08
15
0d
fa
fe
06
00
07
03
fd
03
fe
f3
06
04
0f
05
0b
0d
06
fc
11
fb
04
fd
01
04
fe
ed
03
fd
0a
00
15
0f
03
0e
05
0b
0d
02
10
0c
00
fe
f6
f2
fa
fe
0c
09
04
05
ff
fd
06
ef
1e
00
0b
f9
07
fa
fd
02
10
07
07
f7
0c
06
11
e9
18
fe
05
ff
0a
02
07
fb
0a
02
fd
fd
f7
ff
15
e8
20
ff
09
f6
f7
03
fd
f5
18
fd
07
02
f3
02
09
ef
1a
fb
0a
fa
f8
fc
fd
01
09
05
07
00
f2
0c
13
f2
1c
f5
0e
06
fa
04
06
f0
02
04
f9
fa
02
10
11
fa
2b
fc
02
fb
f7
07
fc
f1
0c
01
fe
0c
fa
08
13
f6
1f
fc
10
f7
05
05
fe
02
04
09
02
f7
0f
12
01
fd
22
02
02
fd
fa
fc
05
ff
fb
0a
f8
ff
01
15
19
fd
24
fa
fa
fc
02
fa
04
fe
0a
03
ff
f8
19
15
12
ff
2e
fe
f8
05
15
f8
f6
02
0b
f8
fc
f5
21
0a
11
f6
26
fb
01
fb
1a
f9
ff
f4
0c
00
f5
00
1d
16
0e
00
1f
0f
fb
ff
17
07
fb
04
03
05
06
fd
1c
0b
00
fe
13
05
01
06
1d
09
03
f9
f1
00
f8
00
0f
ff
fe
05
0b
fc
f6
f8
09
fc
13
04
0c
fd
fb
03
20
11
f8
f8
02
09
00
f7
0d
f7
0a
fa
04
02
09
ff
12
07
07
ff
04
0d
03
f2
05
01
11
fa
09
16
03
0b
0b
ff
07
fe
fc
10
fd
fd
01
f5
13
04
11
05
05
f8
0e
06
fa
00
ff
14
02
f5
fa
ff
04
02
08
15
01
00
13
fc
04
fd
02
07
0b
ff
fb
04
07
09
0d
03
f6
02
06
fd
08
07
0c
0c
ff
fd
ff
f5
02
fa
0f
07
f8
01
16
fd
f6
0e
f9
12
0f
ef
0a
f2
0b
06
15
0b
fc
fd
10
01
02
0c
0a
0c
13
f7
0c
f4
07
00
0e
16
f8
05
05
04
04
ff
fe
08
08
ef
09
f8
fd
04
0a
0d
f9
04
15
02
f8
04
fa
0b
05
fa
05
02
04
ff
0d
04
fd
0b
11
05
fd
03
fc
04
06
f7
01
f3
0c
04
13
12
08
07
13
08
09
fe
fd
10
05
f7
fa
fe
07
01
05
0c
07
0b
0a
09
0e
f4
17
08
12
f7
fa
06
07
f6
09
01
01
fa
ff
fd
0c
f6
18
07
00
f8
f7
f5
02
f5
1b
10
f8
08
f7
0e
16
eb
1c
05
00
f0
f9
f7
02
f9
17
0d
fc
fb
f9
fd
12
e2
07
03
01
ff
ee
0b
01
f2
1a
ff
0c
fe
f2
f5
0d
ef
fc
fe
05
10
eb
fe
f3
f8
0d
f9
03
fe
e7
f6
0f
f6
08
f4
fd
0a
e9
01
fd
fc
11
fe
03
f7
d7
08
17
ec
18
fb
03
20
e2
0e
05
ff
29
fe
fb
f9
eb
0f
09
f3
15
fd
01
18
f4
ff
11
f6
12
09
fd
fd
f5
22
09
ea
05
f3
06
15
f8
02
09
f5
19
0c
0d
fd
fd
1a
04
f6
15
05
eb
16
14
fe
07
fa
15
0c
12
ee
10
10
05
f1
17
03
e0
1d
10
0a
0f
f6
02
fe
11
fb
1d
0f
0c
fe
20
f5
df
23
25
0e
0a
f8
04
03
0b
fc
09
0c
fd
f9
03
f5
e6
1a
23
08
0c
fd
e4
fe
02
f9
17
0d
03
f7
17
ff
e8
13
21
0e
15
05
f0
f9
06
fb
14
03
0a
f5
18
f5
f4
19
10
02
0a
0a
ff
02
08
05
25
0c
01
01
03
01
ff
0d
03
fb
12
00
f2
0a
18
0a
29
01
05
03
fe
08
fc
06
0e
00
17
07
fd
13
02
02
14
0a
fe
02
fc
08
fe
fc
0e
04
11
fe
03
05
07
ff
17
03
f3
09
06
06
0a
f8
03
02
0b
07
02
04
0f
fb
15
0b
fe
01
f4
00
0b
f5
11
06
13
06
09
0c
06
03
13
fb
f9
01
0a
ff
07
fa
03
00
03
01
ff
0e
fe
fe
06
00
fa
fe
0e
0d
0d
ec
f9
ff
02
0a
00
02
06
0d
16
0d
01
08
fb
12
0e
fc
0c
01
0c
05
15
03
00
01
0c
fa
06
0c
03
09
0e
ec
f7
f5
08
02
06
04
f5
04
04
05
0c
06
0c
09
02
f7
0b
f6
0a
0c
02
06
08
08
0a
fa
02
ff
01
05
0a
ff
0a
fc
01
fe
02
12
f9
05
0c
00
0c
06
05
09
02
fe
01
f6
fa
03
19
10
f8
f8
13
01
11
ff
04
ff
0a
fa
fc
06
04
fe
1c
0f
fd
f8
fc
ff
0a
f6
06
f3
00
f8
05
00
02
fb
0e
0c
00
ff
fd
f7
0e
ed
12
f8
03
00
01
06
ec
f6
15
06
07
f4
e8
ff
07
ee
0a
f2
08
08
fe
fd
e3
0b
23
f5
fc
fd
ec
f8
0c
ea
01
ef
05
05
e2
01
eb
f6
1b
ec
fe
fb
d0
ec
0d
e0
08
e6
01
1b
f0
13
f6
02
13
e8
fb
fa
c9
f5
09
ee
fe
e8
01
17
f1
fc
11
02
22
e3
fc
fa
cf
ff
01
df
05
ec
07
23
df
06
17
f4
15
f9
0e
05
e0
09
f4
d8
08
e6
08
1e
ef
0d
17
0c
13
f2
07
f6
f3
fb
f9
f2
0e
f6
ed
19
fc
08
0f
f7
1f
0a
18
fc
f8
fd
fd
e1
1d
f1
d2
16
0d
02
03
04
15
03
1a
f3
08
f9
ec
eb
23
f6
c6
1e
1e
0c
11
04
09
f8
21
ec
09
09
fe
f5
13
fa
d1
1c
1b
07
04
fc
0b
01
18
f0
15
1f
f2
ee
17
f1
ef
19
21
16
08
fc
fa
0c
19
f5
14
0d
ff
f9
0b
e8
f3
1c
17
16
28
03
f6
07
14
f2
20
11
fa
f4
08
ed
f0
1d
19
14
1c
0c
e7
07
1d
07
1b
10
fa
fd
f7
e8
fb
13
17
08
0f
00
ec
02
11
f6
18
fd
04
07
f3
f7
01
14
18
09
19
02
f9
0c
06
f8
14
f3
f0
f9
0a
ee
0c
08
0a
13
10
02
fe
1f
11
00
07
fe
fd
fc
fd
ef
13
0b
14
0a
11
03
fa
10
01
00
fa
0e
ff
fe
00
04
07
10
0e
fc
15
04
fe
08
f7
f9
02
05
fa
10
fd
00
11
05
11
f1
18
05
0d
12
f8
03
06
fd
f8
02
0a
0b
0c
f1
fd
f4
03
fd
0a
0a
fe
fd
10
0c
fa
0b
05
12
ff
f1
09
f3
07
05
0a
0f
04
fb
04
05
01
06
04
01
0b
f0
05
02
fa
00
13
04
fc
0a
0b
fc
06
04
fa
00
0e
ff
ff
f9
0b
0d
03
04
08
fe
03
03
02
0c
06
00
08
ec
03
02
01
f7
0a
0d
05
07
08
fd
03
05
05
07
0a
f8
fb
fe
08
fd
19
09
f8
f6
03
02
09
fc
00
05
03
f8
05
f6
0a
fb
0b
01
fc
00
f4
fc
17
e9
fd
f4
05
fe
ff
00
f6
fc
12
fd
00
fd
fb
ff
18
ea
ff
e5
fa
fe
f1
04
f0
02
06
ff
04
01
e6
f1
17
dc
0a
e6
04
fd
e8
f8
e1
fa
09
fd
00
07
d1
ea
0d
e4
01
df
1b
04
d7
03
ea
08
11
f5
f3
f9
d2
ef
11
e5
08
d4
1c
1b
e1
fa
f7
f9
0e
e3
00
0e
d4
ea
01
dd
06
df
09
15
e2
ff
07
f7
13
e1
00
03
da
00
12
de
0e
e2
19
15
e0
ed
0e
fb
19
e9
fb
10
ec
03
fc
e0
0f
e9
02
17
e8
09
0a
fc
1c
f7
f8
ff
07
fa
01
ed
1c
dd
d3
17
0b
f8
0d
fa
12
fe
14
f5
13
fa
fc
e6
17
e8
bd
1c
ff
02
fc
f3
09
ff
0e
f8
14
01
0c
dd
18
e2
b2
1c
1a
fa
0b
01
11
01
01
f1
08
06
fd
d3
1c
d5
c6
0b
1f
0f
f2
fe
02
eb
0b
f0
0b
08
fc
dc
07
e7
dc
0d
04
0a
09
ff
fc
02
04
f6
13
05
01
dc
fd
e7
f1
10
15
13
0b
f9
ec
04
12
f6
12
06
05
e2
e2
e0
0c
19
02
09
12
06
e7
08
09
f4
04
02
fb
eb
e0
e6
10
1a
13
0c
03
fa
ef
14
0c
ee
0e
03
f8
f4
e5
de
0b
16
12
18
0d
f1
e7
17
0a
f6
0d
f6
08
f4
f1
ef
20
10
1b
17
0f
ef
f0
10
ff
e8
04
01
07
06
f4
e6
0f
1d
1b
16
09
02
e5
1d
08
f9
0b
08
07
10
f5
f3
0b
0e
12
0e
11
f4
f1
04
07
fe
11
ff
03
02
f9
09
02
07
1a
03
0a
f7
04
0e
01
08
00
0c
03
0c
02
fe
0f
f2
0f
fe
05
fa
06
16
09
0c
12
09
07
fa
05
11
0e
ef
09
f9
0c
0d
12
0d
05
fd
0e
fc
04
fd
08
0f
ff
ef
03
05
06
ff
05
0b
f6
00
0e
fe
fa
0d
06
03
0e
f6
fe
f4
06
fb
08
02
fe
f5
02
08
fe
ff
02
02
00
ff
fe
fb
07
fc
0e
fe
fa
f4
0f
09
0d
07
0c
f8
f9
00
f7
fa
04
0a
17
06
01
fd
01
06
0e
fb
0c
fa
fb
f6
04
fc
00
fd
0d
05
01
fc
ee
fb
20
ee
03
eb
06
f9
f3
f7
ff
03
10
f7
fe
08
f6
f5
1e
e7
f3
eb
02
00
eb
02
ee
03
fa
fb
03
00
e1
f1
23
ec
05
ec
fd
0d
e2
ff
ee
06
06
eb
ff
05
c6
e6
0e
e9
00
d6
1e
14
dc
f4
f9
05
fa
da
fa
09
c2
f0
11
f2
05
da
19
17
d3
f2
06
ed
06
db
f3
0f
c1
e4
1c
ed
f3
d1
16
19
dd
fc
08
fe
06
da
f0
11
ed
e7
12
f1
05
ce
07
2d
e0
f2
1e
fc
12
f0
ff
0d
02
f2
11
ec
0f
d4
ed
1e
e3
fe
07
fb
11
f7
06
0d
03
fa
0f
e9
0c
d3
c8
10
00
f8
0b
f9
0c
09
13
ff
0f
04
fd
db
04
d2
aa
21
02
03
03
fe
09
04
00
0c
0f
06
0d
da
fc
df
9f
1c
0b
fc
ec
f8
07
02
f7
fc
12
fd
0f
ea
f4
d1
ce
11
10
09
f1
f9
f9
f5
ef
fd
0b
0b
0d
dd
e2
d4
e1
05
0b
1c
fe
ff
01
00
fd
f6
10
08
13
e8
c1
d5
08
00
fc
10
fe
02
f6
fa
03
00
02
f9
ff
e3
cb
d6
0d
04
fb
15
00
08
ee
f4
ff
e9
f3
03
0f
e3
c1
da
29
06
00
0b
01
fd
e2
08
f8
f8
04
f7
0d
dc
dc
d2
0e
0b
07
0a
f4
f5
d2
1e
01
f2
fc
03
05
f7
e2
da
15
20
19
01
fd
f3
e0
1a
fb
e5
f8
0b
08
fc
d5
dd
08
11
08
14
0a
f2
ef
07
0e
f5
0e
0f
fc
ff
ee
ea
f6
05
0f
16
0d
fb
ec
0b
f8
0c
07
0b
f2
0c
f6
f3
08
06
08
fe
0d
fe
fa
0d
01
07
0e
01
f2
08
fb
f9
11
fe
01
04
05
04
04
16
00
0d
01
0c
08
09
fd
07
06
00
fc
01
0b
02
03
03
03
02
0a
07
00
fc
0d
03
05
fb
03
f5
06
07
0c
03
f7
fe
0a
0b
05
06
0a
0b
02
f7
07
f7
fa
0a
02
0d
03
06
0b
06
03
0c
03
09
fa
f2
fb
02
fe
01
14
08
02
f6
0c
0c
11
07
07
08
06
f9
00
00
04
f7
1a
01
06
03
01
07
10
ee
06
fa
fc
f3
eb
f2
f8
0a
0e
fa
02
09
fa
fc
13
f0
fc
f6
00
04
f2
f7
ec
01
0f
ff
0a
15
eb
f4
0d
e9
0b
e6
00
0e
e3
f2
e8
fa
f5
fa
f9
1d
e4
eb
22
f2
f2
ea
0f
0e
d8
ee
e5
01
f8
eb
ef
16
c2
e9
29
02
f9
d5
16
07
e0
ec
ef
f5
09
d4
fa
17
bc
e4
23
fe
fb
e2
0f
1d
dd
f5
05
f5
0e
cf
f8
02
d4
d5
18
f5
f7
e4
0c
11
e8
fa
17
02
ff
e5
03
17
fb
e0
23
fe
ef
ce
1b
17
f0
f7
1a
f8
0a
ff
05
07
17
ef
1f
f7
eb
e0
04
14
f2
0a
07
fd
07
01
00
05
20
ed
1a
fd
f5
cb
d7
1b
0b
0a
03
ff
13
0c
0e
0e
16
01
15
ed
e4
cd
a5
09
f2
05
01
08
0b
0f
07
0a
1a
02
0f
ea
da
c5
a0
0d
f6
f8
f3
02
07
04
02
f6
1c
f7
0c
ed
c2
c9
e1
05
00
06
f1
0b
07
f9
f5
04
04
fe
07
00
bc
ba
02
05
05
04
f7
08
f4
00
ef
fc
f5
00
05
f5
b9
c8
17
f9
06
09
f3
f7
fb
f5
ee
e5
f3
0d
01
fa
a8
e6
1d
08
06
0f
f4
f4
e4
01
01
f4
f0
0a
00
fc
b8
e1
1c
10
03
01
f4
f8
ea
0d
f6
eb
f2
06
08
e8
c2
f0
11
03
02
07
eb
09
d1
03
fc
f5
fc
07
06
fa
c6
e9
0e
09
12
00
f8
fd
d0
06
03
e0
ea
10
05
ea
ce
f4
01
0a
0e
fa
f8
ff
ea
fd
0f
f6
f5
02
f6
f6
ef
f4
f5
0e
08
02
13
f9
e5
0e
09
02
fc
06
f7
01
f3
ec
05
f7
0f
04
08
09
fb
06
02
fd
04
0c
eb
0b
03
04
08
f5
0e
f8
08
07
fc
03
fa
fa
02
06
fc
09
0a
0d
fb
ee
07
fb
02
0c
ff
14
08
04
18
02
0b
03
07
10
0b
f8
06
fb
07
f9
0c
08
f3
05
00
0e
04
05
0a
00
10
f1
fc
05
0b
0c
06
06
f7
f7
0b
0f
0c
ff
00
11
fe
f9
02
f9
08
01
12
0a
03
fa
01
03
15
02
0d
f6
fe
00
02
f0
f8
fd
0c
02
12
01
f5
00
07
f7
11
03
fe
fd
f8
eb
00
00
0e
00
15
02
ea
ed
00
ee
00
02
01
04
f0
fd
ee
04
09
fd
fa
0a
ea
f2
15
e6
0f
ee
fc
15
e7
f3
e5
0c
09
fb
06
10
da
dd
0a
f6
fd
f0
ff
08
e0
f8
db
08
08
d7
fb
18
c3
ec
17
f6
01
e2
0e
0a
d5
ef
f2
05
04
d2
04
16
d0
cd
1a
fb
ef
eb
18
02
dc
f9
14
f9
12
cd
f5
0e
da
e5
1c
f0
ee
de
0d
ff
fa
f6
20
00
fb
ed
04
0f
08
d9
11
fa
dd
dd
18
0d
f8
f3
1f
ec
02
03
06
0f
15
d4
1e
f0
e3
d8
05
ff
09
f8
0c
ee
09
12
fe
01
30
df
2c
ff
d6
e7
ce
16
01
f5
13
02
0b
0c
03
07
19
ed
21
08
d3
d5
a4
0e
0c
f9
ee
08
15
fe
0a
f7
18
f2
21
04
ce
e0
a4
08
00
f7
f9
0a
1f
07
ff
fb
06
f5
16
f8
c5
e8
f5
0a
09
03
f4
fc
0b
f4
f6
04
00
fd
0f
01
b2
ec
21
0c
0a
f9
f2
fb
01
fb
fd
01
e5
fa
0a
0e
c5
eb
25
fa
03
07
f9
f3
e9
03
ff
eb
e8
07
09
04
d2
fd
1a
f7
ff
fe
f4
06
e1
00
f7
f7
ec
02
01
fe
d1
fe
10
01
04
ff
ea
fb
e0
00
03
f0
e5
07
02
fe
da
ef
13
f8
03
fd
fa
f3
d2
09
05
ee
e6
0e
fc
e6
e1
f3
0d
f1
ff
f9
04
04
d1
fe
01
e3
e5
0a
09
e5
d6
00
fa
f7
ff
01
0d
f6
dd
01
0b
f8
ea
f9
04
f0
e9
f3
e4
00
f8
fc
10
fc
ec
08
ff
f6
f8
fb
ff
fc
f9
fd
ed
f6
f9
05
18
fe
ff
0f
fd
06
f9
0c
f1
00
f7
fd
00
f9
fc
05
12
0d
02
13
fe
06
01
fe
03
09
07
00
f9
f1
04
04
10
10
fa
11
f9
fc
13
07
fb
00
03
0f
0a
fe
ff
fa
0c
fb
0c
02
00
07
10
fc
f6
01
07
05
0f
eb
04
f2
0a
fa
0e
13
ff
f5
09
ff
0e
fd
04
07
07
f7
f5
fe
08
02
00
0a
05
f8
0a
f9
04
00
11
07
03
00
f1
fb
f6
03
10
0b
00
17
f1
fc
e5
03
07
04
04
06
f0
ec
fc
11
0f
09
05
11
f7
f8
ee
f1
08
fa
f5
0d
ec
fe
eb
14
02
f6
08
0f
e8
ed
05
f9
02
f8
01
07
d9
f1
e2
0c
ff
ec
14
11
ce
e1
00
f0
05
ef
0b
08
dc
ed
de
11
fb
de
08
16
c8
d9
08
e4
f8
e8
03
0f
e5
fa
03
f9
01
c9
fa
13
c6
d7
0a
e8
03
f8
1b
0b
e3
ff
12
01
fc
db
03
04
e8
da
03
01
f9
ea
14
10
e9
f2
2a
f8
ef
eb
0f
00
10
ce
ff
f3
f3
e4
1b
10
fe
ec
2c
ff
f8
06
08
f6
22
cb
06
05
e0
f2
01
12
03
ef
0f
f9
fa
0a
02
f8
25
dd
ff
fd
e0
f3
ce
04
09
f7
0d
fe
0f
10
02
fc
1a
f7
11
f2
c7
f4
b1
00
f9
f5
fa
fc
19
f9
f1
fe
10
08
07
0d
bd
fd
b8
fb
fe
f4
06
f7
33
f1
e7
fe
03
fe
12
0d
cc
fb
08
f4
fe
f8
f6
08
19
f2
f4
fa
d0
01
02
06
d0
0e
24
f5
f8
f3
04
09
0a
fa
fe
f3
d3
03
02
0b
d0
03
24
ff
f2
ef
fc
08
f6
fd
ff
f7
d4
f9
0a
fd
e4
08
14
f0
00
ef
f7
f7
d8
0c
01
03
d9
fd
fe
f2
ec
02
0d
fb
f9
08
fd
09
da
06
fc
f7
d6
0b
01
eb
ef
0c
0f
01
f0
f3
00
f6
cb
fa
01
f0
d3
07
04
e7
f4
fa
f1
01
f4
07
11
08
d4
f3
ff
e2
d4
01
fe
df
e9
f8
f7
01
fd
fa
03
0a
e1
f9
03
e9
ee
02
f9
f0
eb
ef
e3
f6
f5
02
09
f9
e4
08
fd
ed
ec
05
f1
f5
fb
f0
f5
f8
0b
04
1d
f7
ec
10
02
fc
fe
f5
f4
09
fc
fb
f1
f5
00
f8
10
f7
f5
06
fc
01
00
fc
fd
0f
f9
08
fa
fc
08
01
0b
02
fc
0f
ff
ff
16
fb
fd
03
05
15
13
eb
00
02
08
02
0f
07
09
08
0f
fb
00
fb
fe
0a
05
fa
00
02
ff
05
0d
01
f5
06
09
ff
ff
f7
14
05
0a
fc
f3
05
fe
fc
11
07
f8
04
0a
ff
ec
0a
12
01
fe
f7
f7
f6
0d
07
0a
04
14
04
fb
fa
da
f5
13
02
0a
0d
f7
f6
fa
05
05
f8
09
09
f9
f9
d9
e7
1e
06
f5
0d
db
f9
f2
01
0a
ff
07
1f
e1
eb
e3
e4
0d
f5
fd
11
de
f3
dc
08
fe
d6
0d
0e
d5
e3
e2
f4
0c
fc
03
0c
d5
fa
de
17
e8
e3
02
0c
c2
de
e1
e7
11
f9
05
fa
d6
fe
e5
04
f3
d8
02
15
d6
d7
dc
f1
11
0d
0d
14
e6
fc
08
f9
e3
d8
09
08
ea
e4
d5
f4
13
05
1d
11
ff
f0
13
f9
ef
f7
02
08
04
cb
ce
f2
07
15
27
08
0c
f1
2b
f9
fc
02
02
f5
20
c5
c9
00
f2
01
06
01
0d
f9
31
fc
14
11
07
00
31
e5
c7
f8
d9
19
d7
00
03
f1
18
01
20
0f
08
0c
13
03
dc
0e
d6
16
a7
0a
ed
f7
0b
02
2c
02
0b
02
fd
17
ea
04
d6
13
cf
05
ef
f5
0b
f5
27
f4
f5
0a
e0
09
04
00
d6
21
1b
05
ed
ef
14
f6
23
f1
f5
f3
d2
0b
04
05
df
21
22
11
f9
f3
14
01
0d
fd
00
04
d4
04
04
02
f3
08
1e
fc
ea
02
1d
01
e8
0c
f8
f9
eb
07
00
03
f0
0f
0d
f9
f2
fd
07
fb
c8
0b
fa
fa
e2
fa
01
09
06
01
01
ff
fa
ff
0a
ff
be
02
00
01
db
f3
06
fe
0b
fc
09
f5
f0
02
00
06
cd
06
02
f3
e1
08
0c
fe
0d
01
f6
fe
fe
fe
0d
05
da
01
07
ea
db
fb
ff
f6
0d
fe
e1
f5
03
12
14
10
e2
00
05
fc
ed
0e
08
ff
0d
f1
e7
00
09
0e
09
07
e3
17
06
f7
eb
03
fb
09
04
f4
f0
fa
fb
fc
19
03
f6
15
0f
fd
06
02
fd
fb
00
00
f0
f3
0c
f6
16
03
07
11
fe
09
14
01
fe
02
fe
0b
05
f5
03
f5
0c
01
06
12
fe
08
09
0b
04
0c
14
10
fe
f2
ff
fa
fe
f7
14
14
06
0c
0f
09
00
08
0d
02
04
f9
ff
fa
fd
fe
12
0a
f8
fe
04
fc
f7
01
1e
09
00
02
f2
f6
0c
00
04
05
0c
f6
fb
04
e3
10
0e
00
f8
fd
f7
07
01
fc
07
08
03
10
ff
f9
d7
f4
1f
03
f7
0a
e4
02
01
00
03
fe
0c
0c
fa
ec
ba
f0
16
01
f1
07
e4
f3
e6
0a
07
de
13
21
ee
e5
bd
f8
1c
08
fe
02
d5
0c
e5
ff
f3
d8
07
1c
cf
db
a9
f6
20
fe
05
05
d4
0c
d0
0c
f0
d3
02
15
d9
de
a9
e0
0d
11
03
f8
f0
06
d3
0d
f5
d2
00
0b
e4
ee
9e
f0
16
0d
11
11
e5
ff
ec
00
ed
ee
f5
01
fc
df
a4
f3
1f
11
1a
11
fc
07
00
06
fe
fb
0a
ed
02
da
a1
f0
10
17
16
13
f8
f8
26
f5
ff
00
10
ed
1b
e2
a5
f8
0a
1a
06
10
0a
f4
23
ff
17
05
00
e6
1c
e9
b3
07
0a
1d
ce
00
fb
fe
24
f8
29
18
0a
f1
19
0c
bc
fb
f7
22
bc
fc
fc
eb
1e
f6
38
0d
07
09
ff
09
e1
fe
fd
27
f1
f6
f1
ef
13
f1
2e
f8
09
05
f2
0d
ef
fc
fd
12
11
09
ff
e9
0b
f5
19
eb
0a
07
e5
0b
f6
fc
15
16
2f
09
e8
f0
13
fa
fd
ff
ff
0c
e8
07
03
eb
14
10
17
06
ed
f4
0f
f4
d3
01
f9
04
ea
f9
09
0c
18
14
11
01
eb
fe
11
04
d0
f0
0a
08
f1
08
06
06
11
05
00
f8
f8
f5
1c
0f
c5
ff
0b
f4
fa
ef
01
fb
14
fe
f6
fd
09
03
07
08
da
f8
f5
f5
fb
fc
fc
f5
0f
fa
f1
f1
f7
fb
16
0d
de
fb
0d
04
fb
04
f5
03
21
f5
dc
f2
fc
10
1f
07
e1
06
04
04
f8
06
f8
07
19
f5
e1
f1
07
02
17
09
ed
14
ff
f9
ee
05
fc
0f
1c
fb
f4
fb
fe
fa
1c
0c
ec
0e
00
fa
f6
0a
f8
14
11
04
f1
f1
08
02
25
fe
fa
04
f6
07
0b
fa
f9
0e
0e
03
0c
ff
02
fe
14
09
fd
10
f9
0b
05
06
0b
00
01
0e
0c
fc
04
fb
fc
00
0d
09
fa
00
14
fa
fb
00
14
08
06
01
fb
05
0f
05
03
ff
f6
06
0f
01
fa
fa
1f
10
fb
fc
fa
fe
fe
f6
01
02
05
07
01
f6
d2
05
18
15
f3
06
f1
fa
06
03
05
f4
07
07
04
fc
cb
f6
1e
08
01
02
ef
01
fa
fe
0b
fb
0e
14
fc
ef
af
fb
08
ff
02
0b
e4
f7
e6
0b
ff
e5
0a
21
e1
e0
a8
f9
19
02
fd
f6
e5
00
e4
fb
f8
e6
00
19
e1
e7
a2
f7
16
0a
01
03
eb
0d
d0
10
f7
e1
05
18
e2
df
9e
f2
0e
06
fe
03
eb
07
cc
11
07
d4
fd
0d
f6
ef
9e
ef
22
16
00
fc
f4
ff
d4
13
06
da
fc
0f
f8
ef
a6
f1
19
1d
0e
fb
f4
0a
ef
ff
0e
e9
00
f8
0f
e7
bc
e5
17
11
16
fa
f2
07
14
f4
13
f6
09
d1
11
e1
d2
f4
23
14
ff
f5
0b
f7
27
ec
1c
0b
04
ea
0b
fa
e3
f0
13
20
da
f9
f9
ee
1a
03
2e
19
fa
f8
0e
02
ed
e2
18
1f
dd
ef
08
ec
0b
f9
2e
09
fd
f8
f9
25
f6
e0
19
1f
ff
fc
fe
e7
ff
ff
20
0b
02
fe
f7
23
fa
ea
21
13
1d
fc
fd
ea
05
f7
fc
f6
01
0d
f8
1f
f9
f7
22
fe
0d
02
fb
f0
fa
06
f3
00
0f
fe
ed
06
f7
fa
1e
0d
08
05
f3
ff
06
00
d3
f4
fb
0c
f3
04
09
f5
1b
00
08
0d
f1
0d
10
00
ce
f5
fb
fe
fa
fa
fd
00
27
0f
02
f0
ee
04
16
08
d2
f4
07
fe
fe
fd
fd
11
17
ff
f9
03
fe
0f
18
03
d5
f9
07
07
0d
01
07
f9
21
09
fb
f0
fb
0f
10
07
e3
0f
09
0b
06
03
ff
fa
19
0b
e4
fc
01
fc
17
06
e1
23
02
f6
ec
06
fa
f8
12
fe
fb
f9
fe
fc
13
0e
e9
29
14
02
fd
0f
05
03
1b
01
f0
ec
f9
e9
0c
09
f9
1a
00
00
05
0f
f8
06
11
fc
03
00
ff
06
1a
07
fc
15
fe
fa
fb
0c
05
0c
17
03
00
fd
ff
fd
06
01
04
0f
f7
00
15
09
f9
01
0a
13
08
ff
f9
fd
ff
06
04
12
06
0d
11
03
fd
00
04
14
06
f7
01
f6
07
ff
13
fe
f1
ff
04
fa
f0
07
0c
17
f1
f4
f7
01
fd
f9
0b
fb
0e
03
04
f8
d7
06
0b
1b
01
05
ef
f6
07
ff
06
fa
0e
0d
fa
f3
d4
05
10
07
03
06
f0
03
04
09
f9
01
03
0d
fe
f1
bd
fc
01
0b
07
fe
da
0e
e8
fb
02
ef
0d
1c
e6
dd
cc
0d
10
01
06
00
e2
01
d9
fc
fe
f5
0d
19
e9
de
ca
fc
06
09
07
fc
eb
0e
d1
fe
02
f9
fb
19
fd
e2
e2
f6
09
09
04
f8
eb
0f
cb
14
09
f0
00
1f
f4
ef
f0
00
06
07
00
fc
ff
04
c4
04
01
f0
fe
13
fe
fa
ec
e8
15
09
07
f4
fb
f5
e2
0f
05
ef
01
e7
1c
e5
01
d8
15
fc
04
09
f3
ec
f7
f8
15
fa
01
e1
0a
ec
06
c6
10
0d
01
0d
06
f7
13
fa
12
11
0a
df
10
fb
0f
dc
0d
0d
e3
fa
f8
d8
16
fb
23
09
f7
fb
07
0c
07
db
1b
0f
e2
f7
fc
e2
13
06
13
0c
07
fd
f9
22
fc
e7
1f
12
fe
f1
12
f3
f9
12
12
04
03
fb
00
23
08
ec
1d
0d
0d
ed
09
fc
f5
06
fd
08
08
0a
fb
13
fe
fd
1b
0e
13
fc
f8
01
ed
03
e9
fe
00
09
f7
16
f6
fb
21
0a
08
f9
09
00
fb
0b
de
e9
fa
01
01
05
f7
ff
1a
02
fc
f9
f4
11
f8
fc
da
fd
fb
04
00
0b
07
06
1c
0a
07
f5
ea
07
05
06
db
ff
f3
ff
09
f3
03
0f
19
14
09
f6
f9
07
f7
05
ec
0a
f0
0d
18
04
02
01
1a
09
f8
fa
f7
07
f8
ff
d7
25
fe
0e
fb
fa
0a
fa
2a
14
f4
e6
e4
fb
fc
01
e4
21
17
fb
0a
0d
03
f6
12
08
f8
ea
fb
ea
f6
16
00
2d
03
04
f6
0c
fd
f8
1f
0a
ef
f5
fa
ed
fa
07
06
22
00
f8
f7
0c
06
01
07
0d
fc
f7
02
f7
ff
fd
fa
13
ff
f5
01
05
0c
08
0d
0e
fa
01
0a
ff
0c
fe
0d
11
f7
0d
15
0b
00
fd
05
0e
04
f0
04
f3
0a
f6
11
0d
fc
05
0e
0c
fe
0b
11
1b
02
ef
06
04
05
03
08
10
f7
04
04
0c
fe
fe
08
16
fe
f5
f5
f1
09
02
01
fb
05
07
0f
f3
e2
ff
07
0a
f0
fc
fe
f4
06
0c
f9
00
fa
0c
02
f4
ec
03
fa
12
fc
f9
f6
e6
06
0e
f3
00
fa
02
ed
ec
e7
0e
07
02
02
ee
e7
ff
fd
fb
01
ec
02
18
e7
ec
fa
03
fd
09
fd
f4
dc
fe
f8
fc
f8
ef
0d
0f
ec
dd
04
03
f9
06
f3
f8
e4
fa
d9
11
09
e7
0c
25
fe
d5
02
fa
fb
02
f5
f2
f5
f1
d6
07
20
e9
0c
29
02
f7
11
fa
02
f9
f7
fb
ea
f5
c7
13
0c
e4
06
14
1e
f3
1d
ec
0b
01
08
f7
e9
ef
ea
0e
14
f0
14
e3
0c
e9
16
e2
11
04
06
fe
05
e9
f4
11
0e
eb
07
e1
08
eb
17
d0
0d
00
f7
18
02
e4
12
11
0f
0d
09
e1
0a
ef
13
e5
ff
02
e9
09
02
df
11
ff
0d
12
fc
fb
01
03
02
f8
07
f9
f1
ff
19
ef
ff
0f
0c
19
f4
0e
fe
18
05
f3
18
05
ff
f8
12
ed
fd
0a
0a
0d
03
ff
f4
15
04
05
13
0b
12
ea
03
f1
e3
fe
f5
f8
08
07
fb
0d
f8
fa
18
00
0f
fd
ff
f4
ec
14
de
00
fa
0b
00
fb
f4
13
1c
07
0f
fa
fc
02
de
16
db
f2
ef
07
05
fd
08
0a
14
0b
07
ea
ff
05
e1
0a
e2
fe
0d
14
04
f7
07
11
04
17
f9
e7
01
0b
eb
0a
f0
12
0b
10
0e
f6
09
ff
0d
11
0a
e9
fd
0c
ef
15
fb
1a
05
03
03
07
fe
00
09
18
f8
e9
f3
f4
e4
10
f1
2a
fe
05
0b
f5
14
f1
1b
06
00
f0
ed
d6
f0
09
fc
28
1b
f2
0d
04
0c
f1
1c
1b
f7
f0
ec
e9
fa
09
fb
2c
16
01
06
02
01
fd
16
11
08
f2
f1
f3
f6
fa
f8
21
fe
fa
08
05
fd
f7
0d
0d
09
fb
03
f7
0c
fe
08
10
04
02
0f
fa
00
04
01
07
fa
fa
07
f5
09
09
09
01
07
fe
0e
07
10
0b
03
04
0b
f2
fa
fd
04
fa
03
04
f4
0a
11
09
03
0e
0a
0d
0b
f8
ff
f4
0e
04
06
fd
ff
0b
08
fc
fb
13
ff
17
f4
01
f1
ed
04
f6
09
02
00
04
04
fc
01
07
02
15
f7
f1
fc
e1
ff
05
f1
05
09
fd
f4
f4
fb
08
ed
02
ef
f2
f9
f2
fb
13
f6
fd
0e
07
ef
f6
02
13
f3
08
fb
e4
e6
ed
fc
fd
09
f9
0b
0a
ee
e8
10
0d
f2
01
f2
ff
ec
f4
fc
fa
05
ec
02
0b
f9
d8
24
0a
f4
fe
fb
05
ea
e5
f4
fc
1a
f2
11
1d
f7
e9
13
08
06
00
f4
06
f2
de
e7
00
0e
f2
0c
21
0d
e6
21
f8
01
ff
f2
0f
e9
e1
d8
0c
04
de
20
15
16
e1
11
f2
03
f7
f9
09
f7
d9
e1
0f
fc
d7
21
f7
0d
e3
0b
f6
ee
eb
09
13
f5
d4
fb
16
12
e7
03
e2
ff
ea
12
fe
f2
f1
ff
16
07
e9
fd
18
0d
00
fb
f2
fd
fa
0e
f8
ff
f4
f4
f9
1c
0c
10
0a
16
22
fe
03
06
02
15
ff
fd
ec
ff
f4
05
11
0a
0b
0b
1b
f5
15
fd
02
0b
0a
00
06
fd
ea
08
05
00
17
07
16
fd
08
f7
fd
0c
10
ef
01
fe
fa
01
f0
f2
13
f3
11
ff
fe
f9
f8
fa
12
f3
04
02
f8
ff
f3
db
0d
e9
0f
05
05
ff
03
fe
17
fc
0c
fa
f1
0f
fc
e0
12
de
03
01
0a
fe
f8
01
0a
fd
14
07
ec
f8
f5
e4
22
ec
07
ff
0b
18
03
01
03
0a
15
07
f6
08
fc
e3
13
f1
10
fb
03
07
fc
02
f4
f3
0e
08
ea
fb
eb
db
20
f9
17
0e
fa
10
f2
f4
e9
ff
11
06
e9
e5
e6
da
1d
0a
17
17
ff
04
f3
06
e7
09
0f
0e
ee
f1
d4
ec
10
0b
2d
1f
00
01
fe
0a
fe
05
03
00
e5
fd
e3
f5
06
fe
10
05
00
f7
00
0c
f1
13
0d
05
e9
f2
e9
01
ff
07
0f
06
03
fd
07
15
00
07
f5
09
ef
09
f9
fd
f6
0d
0f
f9
01
fe
07
0b
00
02
fe
0e
ec
f9
03
06
f9
04
05
f8
f9
06
02
04
ff
03
04
0a
f0
05
f9
f9
fa
04
08
03
00
0a
02
fc
0f
0a
00
06
fb
07
f8
07
fa
0f
ff
f3
05
0c
fe
ff
14
f4
fc
fb
fd
00
e9
03
04
01
05
fb
09
fc
05
07
11
f1
05
03
ec
f2
f3
0b
0a
f1
09
0b
02
ff
f5
00
11
e6
ee
00
e6
07
e6
0c
fe
0a
f9
01
16
ec
fa
17
0b
ed
01
00
ee
f9
d8
16
f8
0e
f5
12
0c
ed
e9
1f
0f
f3
f8
00
fb
f3
d3
09
06
05
fc
08
17
f7
ed
19
0e
f9
f6
01
01
fc
e1
fb
f3
fe
f3
06
13
fd
de
1a
20
f9
f4
fb
f9
f8
db
f1
f6
03
ed
13
23
0d
dd
08
11
0e
fb
fb
09
f1
e9
e5
0a
04
da
1c
06
12
d6
05
16
01
ec
f7
fc
eb
e7
e0
0f
fb
eb
1b
ee
09
d5
09
15
ec
e9
fd
0f
09
ef
f5
0e
04
f2
09
e9
07
d4
06
01
eb
f4
02
03
08
0a
00
1b
04
06
ee
fa
0f
e3
05
16
f1
fe
ff
02
0b
0f
10
08
08
21
f3
17
fc
f3
fe
0b
f3
f7
fd
f5
18
13
ff
13
00
10
f9
12
fd
ee
03
02
e7
f0
07
f5
fc
fc
fe
15
e5
05
fa
0c
f6
ee
fd
10
ea
02
f9
ec
fb
f8
e7
0e
de
0d
ff
00
ff
03
fd
00
f0
fa
00
ef
fa
f4
f2
1c
eb
0a
00
00
00
f9
12
0a
ef
f8
11
f8
09
f5
e5
14
e6
03
f8
f7
0c
f6
f6
03
ee
03
fc
ec
f8
e7
f1
1a
ee
0d
04
08
07
fb
fa
f8
fa
07
fa
f9
f3
e7
f0
12
e6
05
0a
f5
11
00
0b
f6
f0
19
0b
f7
f0
e4
f1
07
f6
10
01
e6
06
f3
fb
f3
08
1d
05
f0
ef
d7
f0
f9
02
fe
14
e4
0a
ff
0a
f0
04
10
0b
eb
fa
d1
f5
f4
06
05
1e
fa
09
ef
06
ec
05
01
10
f1
fe
d7
fd
f0
07
0e
08
01
fd
f5
06
f3
04
0a
03
f9
00
d9
f2
ee
fb
04
09
f9
0d
fe
11
fd
fe
02
fb
f0
00
f4
f7
00
10
0a
07
03
0b
f9
04
fc
04
08
fe
f0
f7
f4
fc
fe
0b
09
02
0d
05
ff
f9
0b
fa
01
fd
ee
f9
fc
fa
05
0c
12
ff
f5
04
ff
09
07
ff
02
ff
f1
04
f1
fc
fc
15
ff
05
f1
0b
0a
06
09
03
03
04
eb
f4
f1
06
fc
07
fc
0b
ea
0a
08
13
11
f8
f9
f9
f4
03
ec
0b
f1
f4
f0
0f
f5
01
12
08
08
f4
ff
03
f3
f8
e8
10
01
05
f4
ff
0d
00
f5
10
17
ef
08
fa
ed
fa
d9
16
fb
12
ef
0d
0a
f8
04
04
0b
ec
f8
00
f8
f0
e4
1a
f6
05
e7
16
0e
08
f5
01
0c
f6
fb
05
f6
f3
e9
fd
fb
fd
e0
0a
13
f9
e7
ff
1a
03
fa
f7
04
f3
dd
05
f5
fd
ed
1a
0f
fe
ea
03
1e
11
f6
01
0b
ec
e5
f8
08
08
e0
11
04
01
e3
01
19
02
f5
05
f8
f4
fd
dc
11
ff
e2
08
03
fd
cb
03
17
04
f4
fa
f3
07
03
ee
0d
f7
fb
0f
f7
fc
e2
ff
11
ee
f2
0d
f9
12
0f
f8
12
f7
05
f0
02
f8
e7
04
16
fb
f0
fe
f6
0b
28
09
03
ed
18
ef
0a
06
de
05
0f
ec
f8
03
ed
04
1b
06
18
f8
18
ff
12
06
ed
07
02
ef
f7
04
f5
fe
0b
f0
06
eb
12
fc
f7
0c
fc
08
0e
f8
06
05
ee
09
f9
f0
00
f2
00
fb
01
01
01
08
fa
ed
f9
fd
00
ff
fe
f5
09
e7
00
fe
f9
06
e8
09
f8
05
f4
00
ee
f1
f2
eb
0f
f3
f2
fd
f5
fe
f4
06
f3
f9
06
fd
fe
fb
d9
ee
10
f2
fb
fe
03
f9
04
01
fa
04
04
09
f2
ed
e2
f6
0a
f0
ed
05
ff
fe
07
f7
fa
02
ff
0b
f1
ec
db
ee
06
09
f6
0c
e5
0f
f8
0e
e1
f3
17
05
fb
f3
d8
f2
fb
00
03
04
eb
0b
ef
03
f3
06
ff
0b
ec
f9
d7
02
eb
01
09
04
eb
0d
fa
0e
dc
fc
02
ff
07
ed
dd
f2
eb
01
04
fd
f4
07
f3
0a
f3
01
01
01
fb
f0
ec
f9
ea
07
04
fd
06
f9
04
0d
01
f9
0a
05
fb
ff
00
08
fe
0e
08
04
0f
05
08
fa
00
05
0d
0f
ef
f9
fb
f8
f9
08
03
f9
fb
16
01
f7
0d
fb
05
0e
fb
06
01
0c
ff
12
0e
f8
f6
0f
fe
03
0a
ff
00
05
ee
06
f2
f6
03
0b
10
f7
ed
12
08
11
06
f1
f9
01
fa
03
fc
06
f0
06
ff
00
f1
05
1d
0d
f5
f5
0c
07
fd
07
f0
04
ef
06
f2
fd
f3
f5
14
07
fb
e9
00
0b
f9
f6
de
0e
ff
05
f8
00
05
f0
f4
f7
fb
f4
fa
fe
f0
fd
e4
0e
f9
10
e4
ff
07
ff
fa
05
10
f8
01
08
f8
f8
e6
11
00
0a
e2
16
01
f8
0b
f5
11
fc
fe
fa
ee
f4
e9
0b
ea
f4
e2
0d
0e
fd
f2
fc
0d
07
f2
fb
fa
f5
fa
0d
ff
f7
fb
06
06
01
f6
f1
19
f4
ed
f6
ee
f1
00
04
f9
00
f5
0e
02
fe
ee
fd
29
02
fd
fe
f6
f9
00
ea
0c
01
e6
0e
01
08
f4
04
2b
f3
f2
03
05
ed
0e
f2
04
f8
0c
0a
f8
fa
e0
00
1e
f9
f5
0f
f0
f6
1c
f9
12
ef
15
fa
10
06
e1
f1
15
f4
fa
fd
f5
08
18
02
01
fc
16
fc
07
f5
eb
0a
16
f2
fc
04
fc
04
10
ff
0f
f3
19
fa
ee
f9
f4
f8
1e
f9
f1
fe
ff
07
12
f7
f1
f8
04
f4
f0
02
ea
f5
0b
f5
01
03
f4
fc
07
fc
f9
ed
f5
06
ff
fc
f0
fc
0c
f9
03
f2
03
f2
f7
f0
f8
ee
e6
f8
fe
fd
00
fe
05
ff
fb
f4
f8
e7
e2
f0
03
f9
ed
f3
f5
ff
fb
ff
f8
fb
01
f6
fc
01
dd
fc
0c
f7
e7
fc
f1
fa
0e
01
f9
fc
07
02
f0
ee
db
fc
fd
07
f3
11
ee
02
09
01
f5
f8
fc
08
00
01
cc
f7
0b
01
ea
11
f4
07
00
02
f3
f8
0f
fb
03
01
d2
eb
09
fa
fc
16
e3
0b
e7
03
ec
ee
0d
00
00
f8
df
f7
f8
09
fa
04
fe
0c
f1
01
e3
f9
01
fd
0b
fa
dc
f4
ec
fd
0b
fd
fb
07
f4
04
ec
f3
0c
09
01
ed
ed
fc
f0
00
01
fe
fc
05
f5
f8
01
f6
01
0b
f1
f8
fd
f8
ec
01
0f
fc
0d
fe
fe
03
0c
0d
10
03
fc
07
fb
fd
f5
00
12
fd
01
02
0d
04
fd
0b
05
11
f0
fd
06
01
fa
0a
0b
0c
f5
10
0e
0f
fe
07
05
05
fb
f8
05
03
04
0c
03
01
ee
01
19
10
f6
f5
03
fb
f1
05
08
07
04
04
f5
fd
f2
03
17
04
fc
f2
fa
f5
03
f7
fc
fb
f5
f2
eb
05
fd
05
03
03
06
f1
f1
03
02
f5
f4
f9
01
fa
ea
f9
fd
fd
14
09
0d
e7
01
00
05
01
ef
06
ef
0a
ea
fa
03
fc
1d
09
09
f7
03
f3
fc
0a
f3
07
ec
fe
d8
ff
07
ff
10
f7
1a
f5
ff
ff
f1
01
ec
0c
ea
f6
e8
0f
0c
eb
01
09
16
fc
05
01
ee
fa
f6
12
f8
eb
f2
fb
03
f9
05
01
14
fa
08
0b
fa
ff
03
04
00
fb
ff
05
12
ea
0c
fa
1c
fc
f9
03
fa
f4
00
02
03
df
fd
12
f9
fc
f5
fc
1b
fe
05
02
06
f6
0f
09
10
ea
06
f7
ff
fd
ee
05
13
06
04
05
f6
ec
0a
f6
07
f6
06
fa
00
f9
e1
f6
1b
02
eb
fc
ea
fa
03
fe
04
f0
0a
f6
fc
05
e1
06
0b
07
fb
f9
fe
00
0e
ee
fd
f5
0e
f5
f6
ff
ed
02
18
f7
f4
f8
f0
f8
11
ee
f5
f8
f8
04
f1
07
f8
f7
11
01
f9
fb
09
00
09
f4
f6
ea
e8
00
f1
ff
0b
fd
04
fb
08
fe
fd
fa
fa
fb
ff
00
e9
ff
f2
f2
02
ee
04
fc
03
fe
f6
fc
f6
f8
f8
f6
da
02
00
f6
f5
f1
08
fb
04
f8
00
ff
ea
ef
00
05
e9
f8
ec
07
0d
02
06
f6
0c
fe
06
05
fd
f4
04
f9
e4
fa
eb
fc
fb
05
01
ef
03
02
fb
0a
f7
ec
09
06
dd
f7
ec
f2
e7
0a
09
f9
00
ff
0f
fd
f5
e9
00
fc
f1
05
ea
f3
e1
01
03
ed
04
05
14
fc
f4
fb
ef
f8
03
05
f6
04
f2
fb
ee
e7
06
0c
f6
f4
02
00
00
fb
01
f9
f6
f8
ff
09
e6
ef
04
fb
03
00
04
fb
fb
05
fd
f4
f8
fc
f6
10
f8
01
05
0a
f8
f8
01
fc
f2
f9
03
04
00
10
f9
0a
05
0b
12
0e
f1
fa
ff
07
f2
03
09
04
0a
16
0b
05
05
0a
03
04
f1
05
04
fb
ff
08
0d
0a
f3
17
08
0a
03
03
08
07
ef
0a
08
f5
08
17
ff
08
f5
05
08
0a
f6
f7
04
02
f4
05
fb
fe
fe
14
fd
08
fd
f8
07
fc
f9
02
f2
00
0f
fd
fb
f6
f3
0f
f1
00
f6
fb
0e
f7
fd
02
fe
fd
02
07
f5
fc
f3
f8
ed
ff
f0
f7
13
fe
f6
fc
05
fe
ff
04
03
fd
fa
08
ee
08
fe
f5
12
fb
05
f7
00
f9
fa
12
fb
fb
f7
03
eb
fc
00
fb
0f
fc
07
ee
fe
01
f9
06
f5
0c
f2
0a
f3
fd
f9
e9
12
f8
1b
f7
08
00
ee
f1
07
0c
f4
f1
fc
0c
02
01
15
fc
15
ed
05
fe
f1
00
0e
03
f1
fc
0c
0b
05
f5
11
05
14
f1
03
00
f9
fd
09
09
f3
f6
03
03
0c
f8
01
fb
1b
05
04
06
ff
fc
0e
04
04
e7
01
fc
fd
fe
0d
02
07
fc
02
fd
f6
f5
ff
ff
f3
f4
10
03
f5
06
f6
01
18
10
fd
01
09
ee
05
f8
f4
f6
14
fb
ee
fd
ef
02
07
fc
f5
fb
fe
03
04
f2
fb
fc
0c
01
f8
10
ff
fb
12
00
f5
fc
f3
03
0f
fd
ed
fb
04
07
fb
0e
fc
ee
10
04
f7
f8
03
ff
01
01
07
03
f6
06
f4
fb
03
f7
09
f8
fe
02
06
0f
01
f4
f7
02
f5
06
f2
0a
fc
ed
0a
02
fc
ec
01
fd
08
fd
07
f0
e3
f4
e9
fb
ff
f4
12
fd
05
0b
ff
10
0a
f7
03
01
e6
fa
eb
01
02
f6
07
f7
01
fd
0d
0a
03
e9
06
fa
f6
fa
ef
06
e8
09
0d
02
fd
fa
05
fb
0d
e9
13
f4
f1
fb
f3
f5
ee
02
11
f0
00
f8
07
01
11
e7
07
0a
ea
08
ee
f8
eb
f8
07
e2
f1
f9
1d
f2
26
f8
f4
04
03
0e
06
00
e9
f7
04
e2
ff
fb
13
fd
28
fa
f0
fa
0a
04
06
02
f4
07
ff
ec
05
fd
03
05
1d
f2
ee
08
03
fe
04
f9
fe
10
f9
fb
0b
05
01
01
18
f6
f9
00
01
f9
09
09
01
0d
06
01
13
02
f8
f7
03
07
03
10
05
f4
08
0f
01
02
03
fe
06
fd
f3
f9
04
00
02
0d
ff
fa
f9
0e
09
0f
07
07
fc
f8
01
02
05
fd
06
04
fd
01
f8
08
10
01
02
04
fc
09
04
fe
06
f1
03
0f
ef
fa
ef
0c
0a
ff
fb
fe
f6
03
0a
05
0e
ff
ff
fe
e7
f8
ea
0c
18
fd
f4
f6
ef
09
05
0c
08
0c
fc
fd
ed
f6
ea
ff
13
f9
e8
ff
f0
f9
03
05
f8
ff
f6
0f
ef
02
e8
08
09
03
f9
f4
01
f1
f5
03
07
f8
f9
0f
f9
0a
00
f5
11
00
ff
e3
08
fd
fc
0c
fd
01
f5
ff
04
f5
f5
f1
0d
05
fd
e7
03
f5
fd
f8
12
01
ee
fa
0c
01
fd
f4
02
05
f1
fe
03
05
fe
fa
09
fb
f5
fd
0e
11
03
f5
08
04
f2
f4
04
06
fc
f4
06
04
ee
f7
01
0c
07
f2
18
f4
ed
fc
05
f6
03
04
05
07
f4
ef
0f
16
f7
fa
0d
06
04
f5
03
f9
05
f9
03
f4
fa
02
ff
0b
fa
06
08
fd
03
f3
02
04
fe
08
03
fd
05
fd
02
12
ff
fc
02
07
f8
ed
f7
fe
10
fc
0f
fd
06
01
0d
08
e7
02
14
f3
f9
fe
03
fc
05
06
11
f2
03
06
12
01
fe
0f
07
f9
06
ff
02
00
04
07
20
f3
f9
01
00
02
f3
0e
00
f4
03
ef
f9
f3
0c
0d
12
fe
fc
09
fd
f4
ed
07
ed
ee
06
f7
f1
00
fe
0f
10
f3
03
08
ee
f3
e3
09
f3
ed
13
f4
04
03
0b
13
0a
ec
10
f9
e7
fc
f1
fd
f0
ff
07
f5
0e
03
0f
0c
20
f2
14
01
ea
f4
e8
07
e3
fb
09
e9
f8
00
10
05
16
e4
fc
fd
f4
05
f4
ff
e6
f4
11
de
ff
f6
0a
f8
1b
e5
ff
f8
f3
fa
ff
fa
e7
ee
10
df
f7
02
14
f6
1e
f7
f8
0c
f9
00
f6
02
fd
0a
0b
d6
f4
f1
10
fe
2b
fa
e5
04
fc
f7
02
f8
f1
12
08
e6
00
08
fb
03
1d
f2
f8
fd
0f
f7
0a
00
fd
09
06
02
12
ff
05
f8
1b
06
f5
0c
11
f3
04
08
0a
0b
08
fd
0e
0d
fb
ff
fc
01
03
0a
06
02
fb
0b
00
05
05
ff
00
08
ef
ff
f7
09
fd
14
10
02
ff
13
fe
fc
0a
fc
fe
fb
01
03
06
fa
fa
12
04
f6
f6
03
06
03
0b
03
07
0b
02
ff
09
fb
f5
06
f7
f7
e7
07
fd
05
00
fb
fe
0c
05
05
14
00
f1
0c
e7
03
f0
09
00
00
fd
f7
f9
05
03
12
14
04
f6
03
e0
05
e9
0f
16
fc
e1
fa
fe
fd
18
14
0e
f1
03
f7
ee
f6
f1
f8
13
03
ea
f3
03
f3
ff
16
08
f7
f1
05
f7
fd
f6
fb
10
07
ec
e5
fb
09
fb
05
10
f2
f9
02
fc
f8
fa
ee
fd
f1
db
ee
06
09
fe
01
08
fe
f6
02
0f
fc
0d
f1
0a
f9
e7
e7
09
06
00
07
19
f5
e2
ff
10
0a
fd
fd
04
ed
e1
eb
09
f3
00
0f
13
f6
e8
fc
0d
05
f3
fa
03
00
df
f8
13
f8
15
0c
1a
f9
ec
f7
06
0c
fa
04
fc
fc
e2
f8
ff
0b
08
0f
16
fd
fc
03
06
0f
ff
03
09
f7
db
ee
05
fa
0c
0f
ff
04
07
ff
15
09
00
0c
fc
f9
f3
ed
f6
fd
0b
fe
0b
fd
08
fa
12
18
fa
06
05
fa
fc
fd
04
0d
0c
02
19
fc
f8
05
11
07
e8
08
f9
fb
fb
ee
f6
0b
ff
17
0e
f7
09
f5
fa
fa
f8
07
02
01
0b
ef
00
ff
0e
0d
1c
fc
18
01
eb
fa
f0
fc
fc
fb
13
02
f4
fe
0d
1d
1c
fa
0a
09
f4
f3
df
fe
f2
f3
14
ee
fe
0c
16
11
26
ee
0c
f9
ef
f4
f5
01
ea
ed
14
e7
08
02
00
09
2b
ed
07
f5
eb
f8
f1
0c
e3
f6
07
e5
ff
0a
14
02
25
e7
00
f4
f7
0b
fe
fa
e4
fb
12
d0
f2
fa
10
ee
29
f9
03
f6
f4
f6
f7
ee
fc
f3
17
dc
f3
ff
03
01
2e
f1
00
0a
f8
f0
04
f1
ff
04
1c
ef
0b
02
00
00
24
ff
f7
fd
05
f9
fc
04
04
13
10
f2
0f
00
06
f9
19
f3
f2
00
00
ee
03
07
07
12
04
f5
0a
fc
fd
f7
0a
fa
f4
0e
14
01
00
02
0a
fb
07
fb
0b
0c
f0
02
07
06
f8
15
13
ff
08
10
07
f7
06
fa
12
07
f0
f9
f5
fa
04
11
0a
fb
01
0f
fd
0c
09
0a
0c
00
05
fe
0d
09
f9
04
fa
f6
01
17
fc
f8
02
01
09
01
06
05
0c
04
fc
06
01
07
f0
08
fe
00
08
f6
f4
05
06
12
0a
05
09
fd
ed
fb
f5
0e
f6
f3
f8
eb
f7
04
1c
04
0b
fc
f9
04
e8
f9
f5
fd
f2
01
f3
ed
f9
fd
0b
ff
00
ed
01
f3
fa
f5
ed
04
02
04
ed
f4
f6
0d
0b
0b
12
00
fb
08
f2
02
ef
f2
07
fb
e7
ec
fa
04
11
fb
02
f3
ff
f8
0b
f6
f9
f5
f7
f5
ea
e9
ff
06
fc
05
0f
00
ef
06
04
04
f2
eb
f4
02
e3
e5
fa
01
07
f7
07
ea
e8
f6
09
0a
f6
f3
09
f3
e3
ee
fe
09
11
08
09
f1
e9
f3
11
0b
fd
01
fb
f6
de
e7
ff
fb
06
10
13
f3
01
fd
00
16
fb
00
f8
f2
ee
00
00
07
0a
02
1d
f8
f6
f3
0d
09
f6
01
04
00
f1
ef
f2
00
04
08
09
f9
f0
fb
0f
0e
ef
13
f9
fa
f4
f5
06
fe
0b
10
1c
f2
f4
f8
11
03
f0
08
0a
f9
fd
ef
f6
03
08
15
13
05
fb
fe
01
07
f6
08
f6
00
04
e8
f8
09
05
10
18
ee
00
f7
02
fc
fb
14
f9
06
04
eb
f8
04
0a
1f
22
ee
09
fc
fc
ff
f6
ff
df
f6
13
e8
eb
02
0f
0a
25
de
0e
02
f3
fa
f6
00
ef
06
0f
e9
f2
00
0c
16
2c
f8
fe
f7
de
f2
fd
05
e2
fd
1c
db
f5
f3
1c
0c
2a
ed
06
fb
ee
fd
fb
00
ef
fd
1a
df
09
f7
13
f4
25
f7
06
fc
f1
01
f8
04
ed
f3
18
e5
ef
f5
21
09
30
f6
00
f2
f6
fd
01
01
f9
f5
1b
f3
ff
02
07
0d
25
f6
eb
f9
ff
f5
00
ff
fe
04
1a
fa
07
ff
fa
f8
1a
05
ed
fa
0c
f6
ff
ff
f7
12
07
01
07
05
fc
0b
0e
04
f3
03
0a
f1
0c
0a
fc
fd
fc
fe
12
fd
00
09
00
03
fe
13
07
00
f9
08
02
f8
fd
06
05
02
fa
f8
fd
fb
fe
0c
10
05
03
09
0a
ff
0d
00
05
0c
ff
ff
f4
03
fd
0c
0a
00
00
07
ff
06
0d
fe
07
0b
00
fa
0a
fa
fd
03
00
08
f7
08
09
f7
04
0e
0f
0b
f9
fb
08
05
00
05
fe
05
f7
0b
06
fe
0d
06
f6
0e
0f
05
07
03
fc
00
fd
f5
f5
03
00
02
0b
fc
07
02
10
06
12
01
01
f7
f9
ed
e9
fc
ed
fd
f7
f8
13
09
1f
02
13
f2
f8
02
f3
ee
f6
f8
fb
f5
f7
ee
04
fe
10
13
1e
0b
03
f7
08
f3
f0
ef
f1
f6
e4
e8
fe
f7
18
0c
03
01
fd
04
05
00
f8
fe
f9
f8
f8
f3
f9
06
0b
00
0f
fb
09
f2
05
f6
f3
f8
fd
03
f4
dd
02
ed
11
fc
08
00
f4
fb
16
fa
f6
01
0c
f5
f3
ee
0b
02
15
07
0e
0f
f6
00
04
ff
f2
f5
ff
01
f5
e4
f7
fa
0e
00
09
05
f6
fd
fe
0c
fa
f6
f4
f7
fc
f4
07
f5
09
00
09
f7
03
ff
fc
08
ea
f6
ee
fc
f3
f6
ef
01
0d
0e
17
ed
f3
fd
12
f3
fc
f9
f1
f1
02
ea
06
07
13
06
23
f6
f8
fe
08
f5
ff
08
ee
01
05
e8
f7
f1
0c
0e
13
ed
0d
ff
f7
fa
fc
0b
f3
f9
0f
ed
f7
02
15
0b
1a
f2
0f
06
f9
01
f8
03
e9
fb
0f
eb
ea
f9
09
09
25
de
0d
01
f5
e7
ee
0c
dd
f4
0a
f3
ec
07
1c
11
1a
e9
10
02
eb
e4
f7
08
ef
02
07
f1
e8
f4
11
17
2e
f9
fc
05
e3
ff
fe
fe
e0
f0
12
e1
ec
02
0e
14
36
f5
02
00
e8
fa
0c
06
f3
fc
15
e4
fd
ec
14
0e
2a
03
fa
f6
03
f3
00
08
f3
f2
18
e9
fe
00
16
0a
31
01
f1
00
fa
ed
11
06
03
08
1c
f3
ec
03
07
05
20
0a
f9
f5
0f
f2
03
07
f4
f9
0c
07
0f
07
f5
0e
1b
fd
f1
0c
06
fe
00
09
09
0c
06
fc
11
09
04
fb
0e
03
f6
fd
02
02
05
04
00
ff
ff
04
17
0a
fb
f5
03
03
fa
00
07
01
00
0e
fb
f8
01
0a
0b
05
ff
09
f6
fc
05
12
07
0a
08
0f
00
02
fc
04
04
00
ee
fa
f5
01
fe
11
02
07
fb
11
01
f8
01
0a
0d
09
f0
01
08
fc
fa
12
fd
fc
05
14
03
06
08
00
10
fd
f3
06
fa
01
05
06
00
f5
f3
0b
05
0e
0d
05
0c
fd
0a
ff
0a
f7
fa
05
ef
f8
fc
0f
07
fd
0d
fe
0f
0a
09
0b
04
04
05
01
f6
f5
04
01
00
f7
0e
00
1c
0a
21
09
12
fb
06
01
f5
ea
f6
00
06
01
13
fe
0b
07
25
15
11
0f
fb
fb
03
f8
e8
fd
fb
fb
fb
ed
00
f9
21
19
0d
12
fc
ee
00
f6
00
03
f6
02
0f
e8
03
fd
1a
0b
09
15
f5
f5
f9
e8
f2
f2
e3
0c
01
ec
fb
00
11
05
12
09
ff
fb
ff
ec
f0
ef
ef
fc
fd
fe
0a
fd
21
0f
15
f8
fa
ef
13
f3
f0
04
f5
fc
08
fb
ff
e9
0c
0a
14
f6
07
f0
0e
ee
ec
fb
e7
02
03
ff
fc
f1
12
0b
0d
03
0b
02
01
eb
fd
fd
f9
ff
0b
f3
f7
ed
1d
15
10
ec
05
04
0a
e5
e9
f8
fc
f7
05
f7
04
fd
19
14
1b
f8
08
06
14
ee
f8
f5
ed
f3
ff
f4
fc
f6
19
13
1e
f4
01
f6
18
e6
f3
f6
f0
ff
09
ec
06
f1
18
11
16
e4
0a
fb
07
ed
04
fb
f6
fb
ff
f5
f1
03
23
11
20
f1
fb
03
09
e1
f8
05
e8
ff
18
ee
f6
f6
18
11
13
f3
08
0b
fa
ec
f6
07
e2
06
10
ee
f5
f1
15
15
36
f8
07
01
ec
fe
f4
11
ee
ff
11
e4
03
06
20
1d
31
ea
0d
00
01
f5
01
07
f0
f7
13
fb
ff
f5
0b
03
25
fe
f6
01
08
fe
01
01
04
f1
1a
02
01
f6
0a
0b
1f
02
f6
ff
07
fc
00
ff
00
ff
0a
fa
f5
02
08
0a
16
00
f8
00
11
f8
10
05
fd
04
0d
f4
14
0d
f9
02
0b
07
07
06
0d
fa
0c
13
06
0b
10
fe
09
ff
02
f9
0d
fe
f6
06
12
00
fc
01
0a
09
fe
08
03
fd
f8
06
f8
09
08
0f
10
f6
0e
11
02
0c
0c
0d
12
08
fa
05
f5
0a
f9
01
11
01
03
12
08
06
00
0a
09
13
f5
fe
f8
06
fb
10
0e
00
09
13
f9
07
00
00
04
12
fc
fb
f9
ff
09
04
0d
ff
fd
05
0d
0c
0f
0e
0f
0c
f6
04
fa
04
02
15
0b
fe
f4
10
0b
ff
08
0a
13
03
fc
fe
03
fe
f8
08
05
f6
f7
0d
fb
08
0b
03
14
06
01
0b
16
f9
fb
04
ff
fd
f2
05
05
fd
0a
07
07
04
18
16
15
0b
f2
f4
07
f0
03
fb
01
fe
1a
f3
0b
00
28
0b
11
fc
01
f2
07
f7
08
fe
f8
01
12
ef
03
fa
2d
10
12
0e
03
fc
01
e7
fe
09
02
f6
15
f2
0d
ef
2e
0b
13
fc
f5
fe
09
ef
f2
01
f0
02
0a
f7
f3
f3
2a
0b
14
06
01
f4
ff
df
fc
f9
e2
00
11
ff
fc
f7
2c
07
19
09
f3
02
11
e3
f7
ff
f2
fb
12
fc
f1
f1
29
03
1d
fc
02
f5
0b
de
f7
fa
f8
fc
12
fd
fa
f6
1e
0c
15
fa
f1
05
07
e2
ef
00
fb
08
0a
fe
fb
f1
2c
f8
1a
01
ef
02
12
e0
f5
f6
07
09
ff
fd
f6
fd
36
08
10
00
03
f8
1b
eb
f1
f9
fe
01
12
0c
fc
08
2a
05
12
ee
fa
05
10
ed
04
03
f0
07
09
00
ff
07
2e
05
12
e8
fd
0a
12
f6
ff
f2
fa
ff
01
fb
f6
05
27
05
15
fa
fd
f0
18
e7
08
fd
ed
ff
09
02
fc
fd
21
0e
2b
f3
0f
fc
05
f8
f1
ff
fc
06
15
fb
06
f3
18
04
28
ec
0a
06
ff
fa
fa
f6
fa
f4
14
f9
fc
0a
0a
07
21
f7
05
03
fd
ee
07
0c
fd
02
21
fa
08
04
12
10
1f
02
07
fb
07
fa
0f
0c
f8
04
17
ff
06
fe
01
09
1a
fb
04
00
00
01
0d
07
fb
05
0b
06
00
fe
f7
04
fc
02
06
0a
0d
f6
14
04
0a
07
0e
0a
09
ff
f4
0a
fb
0a
08
09
0e
06
07
17
08
0a
0a
0e
15
fb
fe
08
f8
ff
f9
01
0e
fc
00
08
ff
f7
06
fc
09
10
f1
06
fd
02
fb
ff
0b
07
04
04
04
f8
00
03
0c
10
f3
fb
fa
07
09
15
11
fd
03
04
01
f6
03
01
0b
0b
f5
0a
f3
0e
fc
08
0a
f6
06
07
fb
0b
03
02
01
08
ef
0a
01
ff
f9
03
11
f9
04
05
08
08
09
fb
05
0c
f9
ff
fc
0a
0a
09
0f
01
fc
16
fe
09
ff
0c
0d
ff
f7
0b
fe
01
07
0f
00
f4
03
13
0a
0d
0a
04
18
0a
fc
05
13
07
02
10
04
ff
fd
04
02
00
12
0f
0b
f9
03
f8
15
0a
fd
ff
0f
fc
f4
13
02
0c
16
0d
1d
0c
19
0a
0e
f9
01
08
06
f2
fd
fa
f8
00
11
02
0e
ec
28
01
10
0c
f6
fd
03
f6
f6
0a
f5
ff
13
fd
05
ed
2c
13
11
fa
00
00
01
f4
fa
01
fc
f8
21
05
fd
fc
2e
0f
1e
f9
ff
f7
f4
e0
fc
0c
e8
fb
1b
0a
08
f7
1b
f7
1e
f6
f8
e7
f8
cf
f1
fe
f8
ff
18
01
07
fc
17
05
24
f4
f3
f2
09
d5
03
f9
f4
04
0d
f4
0a
f2
22
0b
20
f7
fc
ed
13
d9
f2
00
f1
04
09
03
fa
f0
2b
fe
14
ef
00
ed
03
e1
f9
f4
ef
f5
0d
04
fe
f6
21
f5
18
e5
01
f7
0a
ef
f4
ef
f7
f6
17
15
07
fb
1f
04
1c
f1
14
f9
18
ea
01
f7
f1
fd
0a
10
06
ff
23
04
20
ea
09
f5
06
e9
f9
fd
04
fd
07
07
0f
fc
24
03
11
f6
01
00
07
f5
fb
f4
f3
01
15
04
0b
03
18
ff
10
00
14
04
07
fd
fd
f6
05
02
1b
fd
09
fe
16
0d
0b
00
11
0c
09
f4
11
ff
05
fe
17
f9
09
fe
11
07
08
00
11
0f
0a
fd
0a
0e
fa
01
1b
fa
21
01
fd
fd
fe
fe
0c
05
07
ff
0b
12
00
06
0f
fa
09
f5
fa
fc
04
10
fc
04
04
04
0d
17
0a
f9
13
02
11
fc
f3
f8
01
fe
06
06
0c
01
07
0a
fd
fd
12
00
05
00
f2
fa
f8
07
0b
0a
13
fd
0f
09
fd
fe
04
0c
0b
fd
f3
03
05
0b
06
0e
0c
fb
08
07
fd
05
03
fd
0f
00
ef
04
05
02
fe
0a
16
07
f9
0b
01
04
03
fc
0e
0e
f2
fe
fb
00
02
15
07
03
fb
0e
09
f7
fe
0d
12
02
f3
f7
fb
0f
f8
0d
15
06
fa
06
02
00
09
fb
06
08
f3
fe
f8
fb
f8
0e
04
07
fc
14
06
f8
0e
09
0d
0e
ef
08
04
01
08
03
12
03
01
08
07
f8
0e
03
0f
10
f5
01
08
fb
fe
00
0a
f5
ff
14
02
03
fe
fe
01
08
03
fc
08
fb
0b
09
11
fc
f4
12
09
fc
09
fd
06
00
00
09
11
0c
ff
0f
0d
f9
05
12
06
0e
0b
10
1e
fc
fe
05
11
fa
07
03
fe
ef
00
0c
f5
00
12
0e
1f
ff
0b
06
12
04
04
06
fd
f6
03
07
01
fe
18
0d
19
f2
13
fc
00
f9
f9
f5
fe
ed
07
17
f8
07
1c
0b
13
fd
19
f8
09
0d
fc
f9
ff
df
ff
08
f3
05
1c
fe
22
f7
18
f7
0e
fa
03
f4
f3
ed
01
19
eb
04
23
10
21
f0
03
f2
14
00
f9
f4
f8
f3
00
09
fe
ff
2e
02
20
f5
0c
f3
0b
04
05
f3
ef
f1
08
0c
00
01
2f
08
23
ee
06
e4
06
ef
f9
f6
fb
e9
0b
fc
fc
fb
38
0e
27
e9
0c
e1
1b
f8
06
fd
07
e1
0a
f5
f5
0a
1d
09
1c
fd
14
f6
1d
03
11
ff
0a
f4
11
0c
02
08
34
fe
25
fc
0c
f9
12
09
07
f2
06
fb
0e
03
06
fd
20
01
18
ef
03
f8
fa
02
10
03
fe
ef
0a
07
ff
09
30
f2
1d
02
01
01
fc
fa
05
fa
fd
fa
15
00
f4
06
18
fe
14
00
f9
fd
05
00
0f
0a
01
01
0f
12
07
f9
14
fe
18
00
fb
f6
f8
09
06
10
04
f4
0f
12
0a
fc
16
02
14
02
fb
fe
01
00
0b
0c
03
fe
08
12
05
01
11
fa
1a
0a
f3
fb
01
06
0c
0f
11
03
0d
03
0a
fb
04
05
0f
07
fd
04
f9
fd
fa
ff
04
ff
ff
08
0b
fa
06
fa
13
05
f4
00
03
0c
0a
0f
10
f7
00
0e
fb
01
fe
02
03
07
ff
05
01
06
05
06
13
05
fd
08
01
f7
0a
05
0d
ff
fb
f8
f2
ff
fa
0d
0b
f7
fd
0a
0a
fa
00
0a
ff
07
f8
01
f8
0f
08
0c
0f
fb
00
ff
00
0d
02
0a
11
06
00
f5
13
0d
0a
05
09
0a
f2
05
00
0d
06
0f
03
08
01
fe
0c
16
fa
02
0d
fc
fa
0c
00
17
01
01
07
00
03
f7
0b
07
01
01
0f
fa
fb
04
00
11
0c
05
0c
0a
fb
f9
14
0c
07
06
06
01
05
00
00
05
0b
06
0b
06
06
03
11
0a
fb
0f
00
07
f2
0d
00
0d
fd
0c
00
02
08
fb
12
12
09
ff
07
0a
f5
07
ff
09
f7
0e
08
fe
02
fa
0f
06
0e
0a
0c
07
fb
07
ff
0a
fc
05
05
05
f9
fe
0b
09
03
0c
fd
fb
f2
01
ff
08
0a
00
fd
f5
fd
09
03
11
10
06
fe
00
fe
06
ff
13
ff
15
0a
00
f9
05
03
08
fe
03
08
09
fd
04
ff
0c
02
05
00
ff
0c
01
02
05
05
0a
fa
08
00
02
ff
1c
f3
06
01
f2
fd
06
09
07
f9
f8
0b
01
f9
fe
ff
0d
05
00
fd
fe
0d
fd
0d
ff
02
04
f9
06
ff
0c
ff
09
05
00
f7
f6
08
fa
0f
05
fc
fe
06
11
01
fa
ff
14
fd
0b
f8
ef
04
f9
14
fa
09
0a
fa
14
03
f9
ff
08
f5
02
fd
01
06
fa
0e
f9
04
fe
03
0d
00
fe
fe
1c
01
0c
02
f5
0a
f6
17
ff
f7
fc
03
06
05
10
ff
1b
f2
01
03
01
0d
05
0e
ff
f5
03
05
08
03
06
ff
0e
f4
06
01
02
fb
03
08
fb
04
07
03
06
fa
06
00
0e
f8
fc
0d
fe
0f
08
0b
02
fe
10
0d
00
02
13
00
16
01
fc
07
f9
0d
f5
0b
09
f3
03
02
f7
fe
03
00
0e
09
0e
00
f9
ff
f7
06
0e
05
04
10
01
00
0e
00
07
ff
01
0d
01
05
fb
0d
12
01
05
05
fd
f4
02
00
07
06
00
09
05
05
00
ff
02
06
0b
00
07
01
02
00
16
02
13
03
fd
fc
02
13
0e
fd
fb
10
08
fc
fe
00
0b
0a
0c
0f
02
08
05
0b
12
03
fb
0a
07
f4
03
00
0a
fd
14
14
0a
0b
f6
13
05
01
0d
0b
f7
f8
03
00
0c
0b
0a
11
06
ff
f9
ff
10
05
0a
0b
0b
f9
05
00
11
00
14
13
10
ff
06
00
05
0a
00
0f
f5
f7
ff
00
0d
04
06
05
01
0c
fe
01
06
0d
01
0e
01
fb
01
00
08
03
0f
09
07
01
f7
03
0a
04
08
0c
fb
f4
0e
00
0e
0b
01
13
01
fa
f6
08
0c
0e
00
0b
fe
02
0e
00
15
fe
0d
0f
fe
fc
09
04
10
0d
0d
0a
0b
f9
fa
00
04
fe
11
04
f4
0c
ff
10
0a
0a
06
10
fd
fc
07
00
0f
02
12
07
fa
0a
06
08
09
11
09
11
06
ff
09
ff
07
f9
00
07
ff
fd
f6
12
fc
0a
0a
05
0f
ff
07
00
ff
f5
0c
0d
fe
fe
ff
02
fb
13
03
fb
14
f2
07
ff
05
f6
08
02
ee
04
00
fd
00
16
0e
05
0f
f9
07
00
09
fb
09
ee
f1
f5
f5
00
fb
10
ff
08
16
f4
05
00
07
fb
0a
f7
ef
07
ff
00
f8
19
f5
f7
16
f0
0b
00
0a
ee
08
01
ee
f7
f3
04
ef
05
07
ed
16
fe
fd
00
0a
f2
02
fa
ed
fa
f2
05
f7
00
f8
e5
0f
fd
01
ff
13
f4
fc
fa
e9
f8
fc
05
ea
fa
fb
f3
21
eb
f7
fa
04
fd
f9
fc
e6
fb
02
11
e3
0f
0c
f2
16
f2
f8
fb
02
f4
fa
f6
e5
f5
f8
0c
f1
ff
02
fd
1f
01
04
01
0c
f8
f9
ff
ee
fa
f6
0b
f7
f6
f8
f9
0f
06
00
ff
15
f9
f6
f9
ee
fe
01
fb
f4
f5
fe
f1
02
06
02
fb
fd
fa
02
fc
e9
01
05
02
f9
03
05
f2
01
03
01
fd
10
fe
ff
f9
f8
07
04
f7
f2
ff
fd
f3
00
f2
0e
00
03
fc
07
fc
02
07
07
fe
02
f4
03
fa
fb
f5
12
00
0f
07
0b
03
06
04
ff
fd
00
f3
fe
04
fd
03
01
00
0b
02
0f
0b
00
fa
fc
f8
07
f8
fb
06
0a
f1
fd
00
14
ff
07
fc
08
0d
01
01
0e
00
ff
03
f8
f6
09
00
08
03
01
0a
fd
02
fc
01
0b
ff
fe
07
fd
f3
06
00
0c
01
0a
02
0f
01
06
0a
05
f9
00
04
fe
f3
00
00
15
02
03
0b
fb
0b
fd
03
05
05
02
fe
f8
fe
07
00
10
07
09
02
ff
0d
fd
06
11
02
0a
00
09
f8
05
00
05
0c
08
0e
01
ff
f8
0e
05
04
07
06
f8
f2
fe
00
09
0c
0a
0a
0a
fc
fe
10
0d
07
ff
fe
04
f3
fe
00
0c
f8
00
0d
08
00
01
04
15
ff
0a
11
00
04
0d
00
11
f9
00
13
03
05
05
06
17
01
02
06
fb
05
fb
ff
00
03
10
09
ff
08
fa
fe
01
12
fd
04
0f
02
f4
fd
ff
fc
0f
00
00
04
fb
06
00
0b
fe
0d
03
ff
f9
fc
05
06
07
0c
ee
fe
f3
fd
fb
1f
f8
02
0a
f3
09
fe
f9
11
06
07
e5
ef
f9
f5
03
10
07
0d
17
f6
fc
ff
f9
08
0a
fe
f0
f8
f8
f5
f1
14
f4
09
1b
f4
ff
fd
00
fa
18
ef
d6
ee
fc
f7
ec
12
ef
07
1d
fa
f8
fd
fc
10
06
fb
e3
e9
f9
fd
ed
15
f5
f6
1f
f7
f8
fb
fd
0f
0b
f1
db
eb
03
f6
f2
1c
ea
fe
23
fa
fd
fa
12
0b
13
fb
df
eb
08
05
f5
1a
ea
e9
0d
f2
f5
fb
15
00
17
f0
d5
f3
f5
04
db
0f
e5
f6
12
f0
f0
fb
02
04
06
f1
e7
f5
03
f0
d8
21
f6
e9
14
01
f7
fc
00
03
01
f4
d7
f4
fa
ee
ef
15
ef
ee
11
fc
03
ff
08
08
f4
fb
ef
e8
00
fb
de
12
fb
e5
0f
07
02
fe
f9
fe
f2
f7
da
ef
00
f7
ec
09
ee
f7
17
0a
09
fc
ee
fc
00
f1
e1
f7
0e
f0
e2
fd
f8
f1
09
f9
0f
01
fb
fb
fe
04
f6
f0
05
f5
ec
fe
f2
f9
02
fb
12
01
0b
f4
fe
06
f6
f8
ff
f1
f7
fc
f5
f9
06
fa
01
01
04
ff
08
03
f5
ff
0a
f2
01
fd
09
fe
ff
f8
0d
ff
01
01
fb
09
f9
08
06
fd
08
fe
ff
06
00
01
06
00
11
0a
fd
03
f7
01
09
0b
16
02
0b
0a
f7
fe
ff
00
06
ff
06
00
07
04
fe
0a
0b
fe
08
10
fc
06
07
00
17
07
0d
02
03
03
fc
ff
06
01
06
07
fe
f9
04
00
0d
f9
03
0d
0c
09
01
10
17
0c
03
0f
ff
00
05
00
0c
0c
14
02
0e
07
0a
0f
0d
fe
ff
fe
fa
ff
06
00
0b
f9
13
01
01
0a
f5
04
12
06
07
0c
ff
f6
fe
00
0d
02
07
06
0f
fc
06
10
0a
fd
0f
0d
06
f0
08
00
10
0b
0d
11
04
09
00
12
11
0f
00
0c
08
01
03
00
0c
00
12
12
fb
fe
f6
08
07
03
13
17
05
f6
05
ff
05
f7
0b
17
ea
f6
06
03
0b
09
08
12
00
fd
f6
ff
f8
f8
08
0c
f5
00
f5
06
09
0d
0f
13
0e
01
f3
fe
fb
03
f4
13
f3
fd
f1
fa
05
16
02
17
f8
f8
f3
fe
e7
00
03
0e
e7
f2
f8
f9
eb
12
00
ff
04
05
f7
fd
ef
ff
ff
08
e7
f4
01
f5
e1
10
f4
00
10
ff
f7
fd
03
0e
11
01
e2
e3
fc
f0
e5
11
eb
fb
06
fa
fd
fd
0a
07
0f
fe
e4
f4
0c
e7
dc
0b
e3
06
0b
fc
02
fa
0f
0f
12
ff
dd
f5
fa
00
e9
10
e3
f1
0b
06
07
f8
1a
0c
02
02
e2
ea
f8
ef
e6
04
d2
ee
01
04
ff
fa
1c
02
04
05
d3
03
f1
f2
e0
0c
d5
e2
15
02
03
fc
0e
06
fa
04
db
fd
f6
ff
ec
12
dc
eb
0f
08
12
f7
00
09
f6
fe
de
00
ef
fa
f1
0c
d5
ed
11
10
ff
f8
eb
0f
08
f9
dc
f7
03
f8
de
01
eb
ed
0b
08
04
fb
de
16
0b
05
f4
fb
fb
e4
e9
0a
f1
fa
12
10
12
ff
ec
02
f4
0f
ea
04
0e
ee
de
11
fd
e8
fe
0d
02
00
eb
f0
fb
0e
f0
fc
0e
f7
df
0d
fa
f0
08
09
0e
fe
f8
f5
fb
0a
f8
fa
1b
f8
ee
03
fc
f0
00
fa
18
02
09
f3
fa
07
f6
02
13
f6
f1
07
f4
fb
fc
fc
05
03
1a
f7
fc
02
00
00
0c
04
fd
fd
07
00
02
f9
10
01
14
06
0d
0b
fd
ff
0d
f7
01
f4
03
00
01
fe
09
00
0a
fb
11
0f
0e
06
08
01
10
fe
ff
01
fe
04
03
ff
11
03
0a
08
fc
08
03
fd
16
ff
07
02
03
fc
00
00
0b
0a
10
06
fe
0b
09
fe
05
0a
0a
0a
f6
f8
fd
00
0b
07
0d
08
06
f8
fa
0b
15
08
ff
00
04
f6
00
00
14
07
0c
14
03
09
09
02
12
0a
0a
12
04
03
05
00
0f
06
05
15
fc
00
f6
ff
0a
0a
04
0a
05
fb
fc
00
09
03
0a
10
f9
fb
01
08
16
04
05
0f
08
fe
fc
ff
fc
0a
0c
0f
fb
f9
f7
0c
0d
0c
10
12
0d
ff
ff
fd
00
0c
0b
17
00
fb
00
07
f9
05
15
12
11
fd
ec
03
e6
0e
f6
10
fe
f6
f5
ff
05
16
10
0c
0b
0b
fe
05
e1
06
f5
18
f6
ea
f6
f7
f6
0a
08
03
f9
0e
00
05
dc
0d
f7
18
02
f3
f7
fc
de
17
06
0a
0d
08
f7
06
f7
0a
fa
15
fa
e6
f2
f2
e1
05
f1
15
05
0c
fe
06
03
0b
07
0c
02
ee
f4
e6
d5
06
eb
18
16
0f
03
03
09
fe
f8
08
02
fc
04
ef
d8
fe
e2
07
13
10
0a
07
10
0a
fb
13
fd
fb
05
04
e8
f4
dc
12
11
0b
0b
fe
0c
15
07
10
04
0d
06
f1
f0
f6
e4
ff
13
08
f9
00
09
10
0e
05
fa
fc
00
f2
f0
f9
d4
07
13
0c
05
01
fd
10
fc
0c
f7
f9
08
02
de
fe
dd
e9
08
05
fc
ff
d4
ff
f7
f9
f8
fe
0d
fd
db
10
ef
f1
05
ff
0e
00
cd
06
fb
06
ee
ff
fd
00
ee
fe
e8
fa
06
12
07
03
d6
ff
f7
05
f4
0c
06
00
e9
01
f1
ea
14
0d
09
07
dc
10
f5
09
06
07
15
f5
f2
0c
f1
f4
00
15
10
03
e5
00
fc
04
f2
0c
08
f3
eb
16
03
ea
08
0e
11
fe
f3
03
f8
0b
ef
06
12
ec
f2
11
04
f6
12
10
13
ff
07
f4
fb
0b
f0
f0
10
f2
ee
0b
fe
f1
0f
09
06
02
11
e9
f4
01
ff
00
0c
eb
fe
05
01
f7
ff
fe
05
01
1a
f6
03
00
fb
09
18
ee
10
fb
fc
05
f3
00
0c
ff
12
f0
fb
01
04
fe
0a
03
0b
00
0a
05
06
f8
01
ff
17
fe
ff
0a
fd
fc
0a
ff
15
04
f7
0c
03
f8
0b
00
0d
fd
05
0d
0d
04
fb
0b
16
02
01
08
04
01
06
00
0e
08
0c
13
fe
fe
04
01
06
00
0a
10
ff
fd
01
00
0d
fd
08
0f
09
ff
06
11
14
04
11
0a
f8
03
07
ff
06
fb
0c
10
07
01
f7
0f
08
fc
0e
1c
fe
ff
01
ff
07
0c
0c
11
00
f8
f5
06
05
09
12
1b
0f
05
fc
01
ee
fc
fc
19
0b
e8
fc
04
07
03
11
16
08
0a
f7
00
f2
0f
00
14
00
f7
f9
09
f4
fe
0c
17
12
10
fa
05
e5
00
ed
18
0e
f0
ec
04
f8
03
11
08
0b
07
f8
06
d9
12
ec
12
f8
fd
f3
f6
ea
0f
12
0c
0c
0b
ed
08
e4
0d
e4
14
0c
ed
eb
f0
e5
f9
19
16
0c
1f
f6
09
fe
09
f2
09
07
ee
fe
eb
d3
ea
07
20
1a
1c
fc
08
0f
f9
f3
0d
01
f6
f7
eb
df
fb
08
0c
1a
1a
eb
0f
09
fb
f4
08
14
01
01
f6
e1
f8
f8
0b
15
1b
f1
0d
09
10
02
0d
1a
fe
fa
01
ef
e9
f3
0e
0c
11
fb
07
14
02
f8
04
09
fb
0a
05
ed
00
e9
07
20
06
03
00
09
0e
03
fc
09
f2
fe
fa
ee
ef
fa
fd
10
04
0a
02
e3
14
ed
0c
0c
fb
02
f6
e3
f4
f9
f8
12
00
08
01
c9
0c
ef
14
10
f9
06
f9
ee
05
f9
f2
16
17
fd
00
bb
12
f5
00
13
09
12
ed
f0
03
f8
f4
0e
0c
07
01
b7
08
ef
03
0f
03
14
f3
f9
04
fe
e5
12
13
07
05
d4
0f
03
02
19
0e
0c
ff
f9
ff
07
ec
14
09
14
02
f8
0a
f0
0c
00
05
03
eb
f7
10
f8
e2
05
0a
0f
06
04
11
f7
03
08
f8
05
fb
09
05
f6
ef
12
0f
0d
01
08
fa
01
0a
f8
fd
10
f3
fc
16
00
ee
06
1b
0a
fe
18
fd
ed
07
fe
00
0f
f9
fd
06
06
fa
06
0b
12
00
1e
f6
fb
f6
02
0a
1a
f1
0a
12
fc
01
f6
0d
06
fe
1e
ef
fe
07
06
0d
14
f1
09
0e
ff
fc
f4
fc
0b
ff
11
f3
09
1a
fc
12
0c
ff
11
05
f2
0a
fa
fa
fe
00
08
03
08
ff
04
fe
fa
fc
0a
04
ff
07
ff
ff
05
00
0a
f9
04
0e
0c
0a
09
0c
0b
06
10
0b
02
07
0a
00
0a
02
0b
13
0e
02
00
04
0b
05
08
15
fa
f5
01
fe
0d
03
11
10
01
00
ff
11
fd
0c
11
1f
03
f9
f5
fc
03
08
12
10
05
fb
f1
09
08
fc
17
1a
08
f7
f4
00
ef
11
fc
0f
fe
f0
f8
04
fa
fd
16
17
fd
fe
fc
00
f1
17
f0
10
fa
ef
f1
f9
ec
ff
26
1c
fb
0b
fb
04
df
09
ee
fc
01
ee
ec
fc
e1
fb
30
14
00
0e
f3
08
ed
08
ee
ff
fb
eb
00
f2
e7
05
19
0d
fa
0d
f0
0e
e1
01
e4
05
07
e8
f5
f7
d8
f7
27
08
08
1c
e8
0f
07
00
e8
02
0a
fd
f7
e0
dc
f5
25
0b
0a
06
ff
08
13
ff
01
07
07
f5
fd
f8
e6
ed
0f
0b
18
17
fc
07
18
03
09
13
06
01
07
f8
e9
ef
10
1a
0f
15
f0
0a
09
02
05
0a
0d
fa
0a
fe
f7
ff
02
06
18
05
ea
01
03
0f
0a
04
09
eb
0d
08
e6
fc
08
11
18
0f
ea
ff
06
09
ff
0c
0d
f2
16
f1
eb
f9
f7
00
20
11
f6
fd
e3
0e
f8
09
0d
f1
0c
fd
f2
06
fa
f4
31
09
fc
f9
bf
12
01
06
10
fb
02
09
f1
ff
01
f1
12
0f
f0
f7
c1
0f
fd
03
11
ed
0d
f4
f4
07
04
f0
15
1e
f1
f5
c9
00
f7
ff
00
04
00
f4
00
f6
fb
e1
06
15
f4
f9
e9
09
ee
f4
0d
f7
08
f7
07
01
f6
d4
04
00
07
f9
f5
0e
f0
fd
0d
f5
0c
f4
fa
04
f4
e0
07
0c
fc
ff
00
06
fa
08
07
f0
0d
ef
03
05
fb
d3
08
0b
09
fe
08
01
ef
08
05
f0
0c
fe
08
f8
fc
e0
0d
0f
08
f8
16
fb
f4
fe
01
02
11
ec
11
1c
fb
ef
fe
05
07
fb
07
e8
ef
fc
fb
03
1c
e9
06
17
ed
06
f0
02
09
ff
20
f4
04
05
f9
01
22
f2
06
07
f6
06
ef
01
16
fe
11
f0
fb
05
00
0a
13
fd
18
05
ff
06
fd
f6
0c
00
0c
f6
0a
01
0d
05
fd
05
0e
05
06
0d
fc
f6
fc
00
0f
ff
10
07
0d
0c
fa
07
0b
04
08
0c
f4
03
07
00
0e
08
09
0d
fd
fb
fd
05
07
0f
fe
15
00
07
f8
fc
04
04
fe
00
11
f1
fe
07
fa
ff
17
19
01
fa
fd
fb
ff
0b
08
02
fc
f5
ef
06
05
07
25
13
e6
0b
fd
01
ec
04
f5
0c
fc
ed
04
07
ea
fb
21
0e
f6
0d
01
01
f2
0e
fa
04
11
f2
f3
f6
f0
08
33
0a
e3
01
f0
05
de
13
e4
fa
06
f4
ea
ec
d9
03
21
16
f9
0b
f9
0b
d6
15
e4
fc
0c
ea
f2
02
de
fb
2d
0f
f1
0d
f0
0d
f1
13
d4
03
01
f1
f7
ee
d7
00
2c
09
04
10
fd
07
03
05
ea
f9
f6
f7
09
f9
da
f2
1c
0b
00
10
fa
04
04
05
01
07
ff
f2
08
f7
ec
f4
24
0e
08
14
fe
01
08
04
00
02
01
fa
ff
fd
f9
00
24
19
06
1b
fb
02
19
11
0a
0d
06
e5
0a
fc
ef
fd
18
0d
01
0f
fe
fa
0a
00
04
15
04
eb
12
fd
02
04
13
1d
0c
0e
f2
f8
fc
01
0b
06
12
f7
0b
fd
fb
03
0c
11
10
17
e9
f8
cf
05
f7
0b
02
f0
15
fd
fe
f8
07
0b
26
17
f9
f2
b1
09
f1
00
0b
f7
08
f9
fa
08
f8
ee
20
06
ed
f6
b4
0f
f9
11
fd
f1
fd
04
08
00
fe
f0
18
17
fb
f3
d9
09
e4
07
02
f8
07
f5
07
ff
f1
df
07
08
f0
ef
f7
10
e8
03
f8
ea
03
f3
08
ed
fc
e8
0b
11
f0
ee
03
11
e5
00
fd
f9
05
f2
07
f9
f3
e6
f9
0e
f2
f5
0e
05
f3
02
fd
f9
0e
eb
08
00
f3
d5
05
05
f4
f5
16
02
e3
f3
0a
fb
15
f2
06
0f
0c
ea
fe
08
02
f9
12
fe
ea
00
02
03
0a
fe
08
18
fe
ea
fa
0c
0a
fe
18
f6
e9
11
06
f9
17
ed
13
1a
06
f6
f0
fd
06
ff
22
f9
01
15
0a
0a
1d
eb
03
10
06
f8
ef
fe
09
ff
1a
f7
00
fc
07
ff
10
f2
14
fd
00
0a
ff
05
0f
00
09
f6
0b
06
0b
fa
11
09
0d
02
05
07
02
06
0b
00
18
00
0a
02
05
04
09
08
06
fe
05
09
02
f9
07
00
10
f8
02
05
ff
00
02
01
07
06
03
06
ff
06
f6
fe
10
0a
06
0f
08
fd
f7
01
05
0f
19
18
f0
04
f1
ff
f5
04
01
02
fd
f6
f3
04
f4
f7
23
11
eb
0a
fd
00
ef
1a
ff
ff
03
ee
03
f6
ee
ef
2a
fb
e8
08
fa
04
f1
23
fa
09
15
f3
f6
f4
eb
fb
28
08
f0
00
fd
0e
eb
1e
f3
08
08
ed
fc
f4
d5
00
17
f9
ee
0e
07
0f
ec
0e
f1
0b
19
ed
fd
fa
db
f6
20
fe
e1
16
fb
09
ff
04
d8
0d
ff
fb
05
f4
e0
f6
25
10
f1
1d
03
06
fa
06
db
07
fc
fd
12
f3
f2
f3
21
08
df
0d
fa
fc
13
08
02
0d
f0
05
16
04
f2
e8
2f
0a
d9
16
f4
fa
11
04
0a
0f
f9
fb
0d
00
f1
f0
1e
07
c9
06
fe
fb
12
0c
12
01
fd
f1
f8
fd
fc
fa
29
18
c3
17
f3
fd
23
0e
1c
05
f7
ed
0a
09
f9
f9
2b
1b
cf
0c
f6
f7
f7
10
16
08
fa
f6
00
06
ef
f3
13
1b
ee
0f
f0
f8
d5
08
0a
04
08
f5
f2
fa
fd
00
0b
0f
01
10
f5
ff
ba
00
fe
05
fb
fe
09
fd
0d
fc
05
f8
0f
09
f7
f9
ca
01
e9
06
00
ee
f0
ee
f9
f9
08
f4
14
00
f3
f5
fe
12
dc
12
03
f6
fd
03
0c
08
0c
e1
04
ff
fc
eb
0a
0a
d9
0a
fa
fd
fd
fc
0c
08
00
da
02
11
ed
e8
1d
0f
eb
0c
01
fe
f8
01
07
fd
f8
de
00
fa
ec
f2
1c
0a
ee
09
05
ee
0b
f2
fe
02
0b
d4
02
ff
03
fa
18
0d
e1
0e
fe
ff
03
02
0c
07
fd
dc
05
ff
04
fa
0b
fd
e6
01
08
fa
fd
f8
00
0c
05
e9
01
fb
0d
00
0b
04
fb
00
09
f7
11
f6
ff
0a
0c
ec
02
06
14
01
1e
f5
fd
fe
07
ff
11
f4
06
0b
04
fe
f3
ff
0b
02
1c
f7
03
05
ff
fe
10
eb
12
09
00
0e
07
07
14
01
0e
fe
0a
07
07
fe
13
f4
1a
07
f7
02
01
fd
07
00
06
00
13
07
ff
f8
fd
05
08
0b
0e
12
f9
03
fc
01
11
00
08
14
00
f6
03
0b
0e
08
01
06
f3
0a
f2
fe
fd
fc
0b
11
04
ed
f9
f6
fc
04
17
0c
e8
09
fd
01
01
0b
06
03
06
ec
f8
03
fc
f3
1c
f6
d1
fd
f6
02
f1
0e
00
11
0d
f1
03
fb
e9
f2
15
01
d7
ff
fd
0b
e9
08
e7
15
12
e9
06
ff
da
e5
1d
fd
dd
09
01
10
e8
12
f7
0d
09
e6
f7
f5
cf
f5
15
01
c4
0d
14
0b
e3
06
f6
f8
0d
f2
04
f7
ce
f4
13
06
c4
10
0c
09
fa
04
e9
00
09
fc
0a
09
df
ee
16
00
bd
0c
12
ff
fd
13
ee
fd
f2
f9
08
f9
f3
e2
26
fb
ac
0e
03
f3
0e
0b
01
08
ff
fc
ff
02
05
e2
1c
11
a6
17
eb
fd
06
11
10
f9
f0
f6
0c
05
05
e4
31
11
a0
0c
f6
fd
26
09
06
08
fb
f2
05
f2
f6
ec
1d
0e
b0
04
fe
00
19
05
1e
0c
f6
ed
f6
f6
ef
fd
19
1d
c1
f4
0c
fe
fe
07
29
13
f5
00
f8
ff
ee
e7
15
18
e8
f3
f8
01
c0
0d
04
0a
f6
f6
ed
ef
eb
fa
0a
0f
03
05
f4
07
b1
01
f5
05
f2
ff
fc
f3
fa
fd
04
08
11
06
f7
03
e0
05
f0
0a
04
f1
08
fa
fe
fa
fe
f6
fd
04
f8
fd
08
06
e9
0a
f2
f7
f0
ff
f5
fb
02
e9
14
01
f0
f5
15
00
e8
0e
01
f1
f6
ff
f6
fd
f5
c6
fe
06
fd
f2
0e
0c
eb
02
fc
05
fe
07
f1
00
04
da
02
f9
02
f7
1a
07
dd
0a
05
f1
03
06
0e
f3
f6
e2
f9
fc
0d
f8
06
0c
f0
01
0a
fe
14
04
05
f2
fc
d4
ff
f8
f8
fc
fa
03
f0
f0
1c
f7
06
06
0b
06
0c
ea
05
f5
01
fe
18
07
f7
0e
0d
f4
25
f3
0d
ff
06
fa
f6
03
11
02
0e
f3
f2
f9
1c
f6
23
f9
13
0e
0a
f7
00
f4
0d
01
0b
fe
00
00
0e
05
13
ec
18
04
04
0a
f8
00
09
01
1d
f5
08
fc
10
01
03
00
18
03
0f
13
07
f8
fe
00
07
00
01
0f
fc
07
f8
0e
14
f9
11
11
f9
fc
01
ff
03
ff
03
03
03
02
06
00
fd
04
01
fe
f8
03
fe
fd
06
01
11
06
03
ea
07
fd
f8
f6
0c
fc
df
fa
f6
fe
fc
0b
f8
08
0a
eb
07
f6
f6
ee
f9
f6
d9
03
05
00
f9
08
fe
0c
fa
e6
03
f9
e2
e2
ff
fc
c9
fb
01
0b
ed
04
f1
05
0e
ea
05
08
e3
ed
02
fd
bc
06
0b
0f
f8
04
f2
09
10
e7
f8
ee
c6
f5
00
f8
ac
fe
00
0a
e7
fb
f9
f7
15
f3
0e
07
bf
e5
04
e8
ac
04
0c
03
00
08
ed
0b
fc
fe
0d
ff
f3
ea
fa
ef
b2
10
0b
00
ef
fc
ec
07
0d
f6
05
03
fa
dd
fd
f5
a9
ff
02
f5
f6
0c
f2
0b
fe
f3
08
fe
0f
d8
06
fb
ae
06
02
f5
0f
15
0d
fb
f3
fa
06
02
14
e3
04
0e
c7
ea
f8
fd
18
00
09
08
e7
e7
ec
fd
03
f2
ec
14
c7
dc
00
fc
18
09
28
04
fa
df
f0
f8
eb
e4
f5
1f
d1
d5
04
00
f0
0b
32
0c
f8
e9
f2
f9
ee
eb
f0
20
f1
dd
01
07
b2
0c
17
10
fd
f1
ff
fb
e7
e4
f5
16
00
eb
ff
0e
cf
09
fa
04
ef
e6
07
f2
f6
ee
f4
1a
0c
fe
ff
0b
f0
07
e8
0a
f1
f7
10
f2
ee
f7
08
fe
06
f1
fa
ff
0b
01
d9
07
fd
00
0f
fa
f7
f6
f5
d9
03
f7
02
ff
18
fc
e8
11
ff
f9
06
05
ef
05
01
c4
fa
f8
06
fa
0b
f9
e4
05
05
00
05
fb
fe
f6
f6
c6
f4
e6
0b
fb
09
fd
db
0f
13
ff
15
fe
02
f9
fa
ce
ff
fb
03
f8
06
04
ea
0d
08
f6
19
03
f2
f9
f8
e4
f8
f5
fc
f8
fc
0a
ed
08
13
f0
25
ff
f4
09
04
e5
07
f9
13
fe
05
09
f1
0a
1d
ea
19
ef
0d
0e
05
f4
0a
00
04
01
02
f9
fc
09
15
e7
2e
ec
10
08
0b
09
00
f5
fe
01
03
f3
07
10
14
fe
1a
e4
0e
12
01
03
f8
05
11
fe
0c
f3
0e
09
0b
f7
0b
f7
1d
0c
02
11
f8
f8
00
ff
09
03
12
12
10
00
f5
0e
0d
02
ff
0b
fe
f2
f7
fe
01
00
09
01
0d
f2
f9
10
fe
fd
f9
0b
ec
04
fe
ff
07
10
06
f6
09
f0
f8
fc
02
00
01
f4
dd
ee
02
fc
f6
04
00
fb
ff
e7
fc
f3
f0
f2
ea
f5
cf
f0
0d
03
ef
06
00
fa
05
e4
fc
06
e1
e8
eb
fc
c3
e9
05
06
f5
fc
0a
03
0f
ea
06
04
df
e4
ed
f2
bc
00
02
16
f4
f8
00
0b
0e
f0
f8
f8
c6
ed
f8
fa
c2
07
0f
0f
f3
fc
f7
09
13
fd
02
05
dc
e1
ed
f1
c6
ff
0e
0c
fd
fc
ed
0f
0e
02
f0
ff
02
e5
db
f3
c9
fa
0c
fe
03
06
e8
00
0a
12
fc
ff
04
fa
d8
f3
e4
e2
f7
f9
03
fa
ee
03
00
fb
fe
f6
1f
f8
da
f5
f2
dc
01
f8
0e
fb
0a
12
f8
00
f9
fb
1a
e8
c9
01
f6
c5
f8
fc
2e
08
12
17
ee
e5
fa
fa
0f
f1
c4
11
01
c4
00
fe
1b
0c
1d
0b
08
e7
fc
e9
f6
f0
ca
23
ea
c1
05
03
ec
09
12
12
00
d7
0e
f9
ee
f2
e0
21
f3
e8
0b
04
d5
0f
04
0a
f2
ea
0f
f0
f8
e5
df
23
f8
eb
0e
0a
d8
0b
f2
08
f4
e2
1b
fc
fe
ef
f8
10
02
e9
fe
01
fa
05
d7
12
f1
e4
13
fb
f8
dd
fe
f5
07
ef
07
fe
0c
07
df
16
02
f2
18
04
f8
f2
f2
c5
f4
fa
0e
fa
03
0b
e8
09
0b
f6
0f
02
f4
f3
f7
c8
fc
f3
0a
fc
0c
f8
da
0d
00
f8
10
06
fb
ed
f0
be
00
f3
04
f8
fd
07
da
09
18
ff
08
09
fe
fa
ed
d2
fc
f4
11
f6
08
07
e8
19
1d
f8
17
02
eb
fb
04
ec
fd
fc
0a
f6
01
fc
ee
0f
15
02
24
fa
09
03
01
f2
fd
f4
03
fc
fb
05
ff
08
1c
ec
30
fd
0b
12
07
04
0a
ef
fc
fe
f4
01
06
ff
11
eb
2d
e8
15
04
fb
04
02
fb
08
00
09
f1
0c
02
0c
f4
22
ec
0b
13
fe
01
04
f9
0b
fe
12
f8
00
11
07
fc
09
f4
18
fc
ff
11
01
06
0b
00
10
fa
0b
06
fd
fb
05
09
13
08
09
03
01
04
08
ff
00
07
03
02
0c
fb
00
02
10
03
fb
10
f6
fd
06
fd
0d
08
11
0b
13
f2
fe
fc
00
00
00
f6
da
eb
10
fa
f4
0a
fc
01
ff
ee
05
00
ed
f4
db
f4
de
e6
01
fc
ff
ef
03
04
18
e3
06
f2
ed
02
e0
eb
cb
e3
07
02
f2
fa
07
0b
04
f2
0b
0b
c8
fa
e0
f8
da
e6
07
14
fe
f9
f8
01
13
05
08
f8
d8
fb
dc
ec
eb
f6
02
13
fe
f4
ff
14
11
0e
f9
07
e5
fd
dd
f2
fa
fb
0c
0e
01
f0
f8
16
05
05
fe
fb
ff
f6
cb
ef
09
eb
00
05
fd
f5
ea
fe
17
09
f3
fe
15
05
c3
f9
10
da
0a
ff
04
f3
fb
0c
02
09
02
ff
10
00
b3
f6
21
d2
f6
f8
06
f1
0a
17
04
f6
f7
f5
28
0c
bc
06
1e
bc
07
02
24
fb
02
15
f6
f4
fd
ec
17
07
ce
0c
07
ca
0b
fd
1a
11
1f
10
0e
e1
ff
f2
14
10
dc
1f
07
ce
fd
fc
02
12
0f
0c
fd
d2
0d
eb
0b
fe
ec
16
06
e2
19
05
d9
0f
05
04
0f
d4
05
f6
f4
f8
f0
17
11
e0
0a
00
f6
0b
f3
0d
09
dc
f9
14
f3
fb
f6
03
08
eb
01
fa
04
02
da
05
0f
e0
fa
0b
fb
f3
fb
e8
f3
ec
0e
f6
12
05
e2
12
fc
00
0a
08
00
fc
f9
bf
f4
f1
06
f4
1b
02
de
07
11
f8
0c
0b
04
f9
f4
b1
ff
ec
0e
f3
01
04
e3
0d
13
fc
fc
fe
fe
ef
fa
c9
05
e0
1d
f1
03
00
e1
1c
0e
01
01
10
fd
f7
0b
d3
00
ee
12
f2
eb
0c
f7
09
1c
02
01
03
05
0b
12
ec
03
f2
f7
f2
f7
03
f8
0e
22
f8
13
fb
0f
0f
07
fd
f2
f7
ff
f7
f7
0b
0a
12
26
f7
20
ec
08
0f
0e
06
05
f5
ee
ff
f0
f5
07
01
15
f3
25
e4
16
12
04
03
02
f1
06
00
fa
f7
fb
05
fc
ee
20
eb
08
06
00
12
09
03
08
ff
14
fa
12
04
03
06
0b
f7
04
0e
0e
04
ff
03
fa
00
0f
08
06
12
03
04
09
00
12
04
fa
07
fa
f4
09
ff
0d
09
12
0a
09
ef
f5
0c
fb
ff
f7
09
eb
f6
f7
fe
0e
fc
0a
03
00
ec
f7
f9
fa
0a
ec
f6
e5
f3
07
fc
03
f8
fe
fa
fe
f4
0d
f7
ff
fb
d8
01
dd
e4
0f
fd
fc
ea
02
eb
04
f4
07
02
f1
00
cd
ff
ee
df
06
07
ee
e7
08
fa
14
fa
05
fc
dd
00
cb
fb
ff
dc
12
12
f6
f7
f2
03
0d
02
f9
02
d8
06
be
f9
04
ed
12
14
f4
f6
fa
08
14
fd
05
02
eb
0d
c3
f7
17
f6
03
0a
f1
fa
e7
0c
1b
11
fa
0e
01
1a
b0
fb
13
e7
16
07
f5
fb
e9
11
16
0e
fa
f3
0d
0b
bc
09
1a
c7
fb
03
0c
ff
f6
15
0a
00
05
01
12
14
d6
06
10
ce
0e
04
19
00
08
0b
08
0b
09
ee
1e
11
d1
0e
15
c9
0a
02
1c
fc
08
0c
11
09
01
ed
20
1a
f3
0f
0f
dc
f3
fc
17
19
15
21
01
fc
f2
eb
17
1c
fa
1a
0d
dd
09
fb
f2
03
12
0d
0d
ee
f6
ef
0d
1d
04
19
1a
e5
12
01
f9
14
03
08
06
ec
00
18
03
0b
05
02
11
e2
18
01
02
03
e4
ff
03
fb
e9
13
f0
06
05
ef
00
dc
0a
fb
07
17
d4
17
01
f9
e0
1d
f5
ef
fb
da
08
e7
0c
f4
16
0c
e4
0d
ff
f1
db
15
ff
01
0b
c0
07
e8
10
ec
0f
0f
ee
09
fe
10
f4
18
11
00
02
c8
fd
e0
04
ed
00
06
f7
13
17
06
fe
0e
08
fe
04
df
fd
ea
0b
f4
f9
10
f9
14
0e
05
06
21
01
fd
0c
e0
ff
e3
0e
f7
f1
05
f1
1b
17
02
00
10
0a
fe
10
01
ff
f8
f9
f8
fd
0d
08
0f
01
fa
14
1b
0b
10
18
02
ee
f0
fc
fa
f3
08
fb
fb
07
00
11
03
06
0c
03
06
fe
05
f1
fe
04
05
04
fb
09
f1
1d
ed
03
09
1a
fd
fb
fa
fc
fe
02
06
11
ff
f9
06
0e
f3
01
10
13
0e
08
fe
f9
ff
10
ff
0b
0b
03
04
fd
00
0e
12
04
04
fb
05
09
00
14
f7
10
0c
0d
02
f7
08
06
0e
05
13
05
f0
00
fe
0e
01
0d
fb
fd
f5
fa
0a
0b
0c
00
fd
f6
fe
03
ff
0d
06
0f
f1
fb
ed
fb
01
fd
06
f7
ef
fe
f7
0d
fe
02
fd
ff
f2
00
ee
0c
fe
f8
06
da
f0
f7
f0
fe
ff
fd
f5
fd
e6
f5
f2
05
ff
f2
10
c9
fb
03
f7
10
0a
fa
e2
f0
e7
ff
00
0d
f5
ea
07
c1
f3
0b
e0
0e
0c
fd
f6
f5
de
0e
0b
fd
f9
f8
14
c3
03
0f
f3
0b
0e
02
f0
ef
fc
02
fc
f1
06
f9
15
b1
00
0d
e1
0b
08
08
00
ec
f6
15
01
f9
00
04
1d
d0
0c
06
e4
09
0b
09
f9
e8
0f
0a
f8
0b
fe
0a
1e
da
0d
02
e6
0b
0b
07
06
fc
13
18
1a
02
03
09
16
ec
02
01
d3
08
04
0e
06
08
18
24
1d
0d
f0
16
1a
0b
ff
f6
e2
f9
f9
10
fd
02
1e
0e
1b
04
fc
1f
1d
01
13
04
fb
f5
f6
1a
0d
1f
29
03
13
ef
08
10
24
07
1e
09
f3
03
00
f5
0e
06
15
0e
05
f8
03
03
25
0b
11
03
ea
10
02
f9
16
fc
0d
0d
10
e2
17
fc
12
07
f6
04
e5
07
03
08
0b
e7
0b
06
0d
ed
28
01
0b
07
ee
fe
e8
0a
fa
0e
02
dd
16
10
01
d3
16
01
0b
06
ca
ff
e7
00
f2
0f
05
d9
0e
0f
f7
d8
10
01
fb
09
d5
fe
e2
13
f3
08
08
e9
0e
ff
0f
ee
11
06
06
fd
db
08
e9
09
f1
02
f4
ef
10
01
0e
f9
20
15
f8
04
ef
fa
ea
0c
f4
09
0b
f1
0f
fc
0c
fc
0f
0f
ff
02
04
fb
f1
ff
f8
fa
0f
00
0f
fc
01
08
15
06
05
1d
14
03
f0
f8
fa
06
04
fa
09
f8
fd
05
22
15
0c
12
04
f9
00
e9
fc
f6
0d
fe
09
07
f4
08
fc
0f
0f
0a
0f
08
03
f6
fc
04
07
01
f9
ee
ed
17
0a
ff
11
0b
ff
0c
0b
f7
00
13
ff
04
07
ee
0b
0c
0e
fc
1d
0b
0b
10
fc
f9
ff
12
04
02
ff
00
04
f5
05
0e
0e
06
0c
01
05
0a
00
07
05
02
05
06
08
fc
fe
05
13
00
00
06
f8
f5
fe
0e
05
03
08
04
03
f9
09
ff
09
f4
05
fd
f1
f9
fd
06
f9
00
f5
fd
00
0d
06
09
05
eb
fe
10
f7
fc
fd
05
eb
07
e6
e7
f7
06
05
02
1d
d9
f3
0c
f6
ff
01
01
e1
00
d9
f9
05
09
ed
f8
12
d1
00
0d
f7
0f
03
02
e8
f9
c5
f3
0a
0c
ee
f0
22
c6
05
15
e3
04
05
f8
f4
f0
c4
f6
08
fc
f9
f2
17
c6
fa
10
f2
0e
0a
07
09
f2
c5
05
06
f6
ef
01
23
ca
0c
10
fa
ff
0b
02
05
ea
c7
0e
f3
01
09
00
0f
e0
07
00
f2
17
0d
fc
01
fa
d0
1c
0e
03
f4
07
0f
f9
02
ff
f0
06
0a
05
09
fd
de
1a
14
0b
00
01
0d
09
09
02
f3
0c
09
12
0c
fe
ef
17
26
ff
ed
14
18
0e
0d
f5
fe
ff
fe
10
0b
09
03
10
27
f3
f6
0b
08
08
01
f8
06
fe
00
08
11
02
0e
0d
28
e7
0b
0a
20
0d
0d
fa
01
08
03
fb
16
04
1a
07
16
fc
1f
0a
1a
03
00
0f
f9
fe
00
fb
0d
f8
0d
0f
0d
f4
22
06
17
03
e7
07
f9
05
05
00
ff
d4
0d
12
14
e9
10
f9
17
0a
df
fc
ec
03
00
04
0a
d5
08
ff
05
f3
17
03
0e
0a
d7
fb
ef
fa
f2
01
f2
d1
0d
fd
fe
ed
13
04
05
07
d9
f6
f9
05
ef
11
fa
d4
fd
f9
f4
eb
09
03
0a
05
fb
02
e3
02
f5
15
ea
e1
fd
f4
f6
f8
0c
0a
08
ff
01
01
f3
05
f5
06
fb
f6
ef
f6
05
f2
02
0d
ff
0b
00
fb
ee
ef
fc
fd
ff
fd
fd
00
01
03
0b
1b
0f
10
17
fe
f0
f2
fb
07
0f
0b
fc
f4
fc
0a
fa
0c
09
16
03
07
f7
e3
fd
0d
f8
00
f5
f2
ea
17
02
08
1b
01
08
10
fd
ef
ff
03
f6
00
06
ea
f3
18
06
fa
1e
00
0e
10
04
f0
ff
08
fa
09
06
fd
fb
09
02
fa
29
06
09
09
07
f8
fe
0d
fb
0e
fe
09
08
00
02
09
0a
04
12
04
f4
fd
00
11
02
10
0d
01
ff
04
07
11
0e
08
07
0f
f5
08
fe
0e
f8
00
01
12
ff
07
fb
00
03
fe
05
13
f7
09
ff
fe
f4
fb
ed
03
f6
02
07
05
1b
f6
fb
05
fc
03
fc
fa
f7
fc
df
ef
f6
02
ff
f8
24
e1
f5
10
f9
f7
fd
04
f0
f9
c6
e5
00
10
fb
f8
11
e7
08
08
f5
00
00
fc
fb
f3
b6
f9
01
14
fd
f7
12
dd
fe
15
ff
0d
05
f9
f4
ed
a7
f4
fd
0f
ff
00
17
db
f8
0e
07
08
08
fd
f0
ee
a6
f2
07
08
fa
07
18
f7
03
03
08
13
09
04
07
f9
95
f0
06
f4
e5
f9
0c
0f
fd
fd
fb
12
09
07
02
f1
98
01
06
f5
e9
09
0c
05
05
fd
f6
0b
0c
01
0d
f9
9b
0e
19
03
f0
0c
0e
04
03
ff
fd
09
03
08
0b
02
b6
04
16
e8
08
07
0a
01
00
f8
f8
0f
01
0c
0e
0b
c0
12
1b
ee
07
0f
fb
1a
0f
f3
f2
03
fe
07
06
fd
db
1e
29
f0
0d
06
15
13
fc
07
f3
f7
fd
ee
0f
f8
e7
0c
1d
02
15
05
11
0d
e8
00
05
fb
00
ff
fe
ed
f2
0f
15
02
16
fe
0c
01
da
fa
f4
fe
ff
04
01
e0
e7
0d
03
0b
16
0b
18
03
cd
fb
ef
07
fd
08
03
cf
f0
fe
03
02
12
0b
06
08
e0
fc
f9
ff
f4
fc
f1
d1
ec
f3
fd
eb
12
fc
10
0b
ee
f9
fb
0f
ee
1c
ec
df
ec
e5
f8
ea
08
09
04
0a
fa
0d
e8
fd
f1
11
ea
ef
ef
d8
ed
e6
08
09
14
04
11
02
f1
f9
f6
05
f0
e5
f2
f4
01
f2
06
06
02
09
0a
fb
e5
f2
00
12
f9
f5
ff
f0
eb
f2
04
06
13
ff
0a
11
f1
eb
01
07
f5
fc
eb
ed
f1
01
fb
06
1c
0d
ff
08
01
e4
fe
0a
fd
fe
ef
f9
f2
09
ff
00
1b
fd
00
13
00
e8
00
0d
f5
0c
fb
ed
fe
10
f2
06
16
01
17
12
00
f0
fc
11
f4
10
ff
04
fd
f6
f8
fe
2a
fd
0e
09
04
f9
00
0f
fe
0a
09
05
07
f9
fd
06
04
0a
08
02
f2
03
00
05
fd
04
13
04
05
f6
0e
11
08
08
03
0e
fd
fd
ff
08
fd
07
fe
03
02
f7
fb
00
13
f4
06
08
ff
07
fd
08
f7
05
fe
f5
fd
fe
f8
fd
15
f4
ec
0a
0e
fd
fe
f8
00
fd
d1
fa
ed
0a
f7
f1
1b
e8
05
0c
0e
e8
fd
fb
f8
fc
bf
eb
00
07
f6
f4
0f
ed
0c
fc
fd
e9
01
ee
07
e1
bd
e5
fd
06
02
f8
09
e2
fd
fe
09
f8
06
f3
fa
e4
bc
d7
06
08
ed
fd
0c
f2
f6
fe
09
0f
05
02
fe
f5
a9
e3
0e
fb
e3
06
01
1a
00
09
12
01
05
0c
04
f4
9e
df
15
09
e8
0c
0d
06
03
ff
fc
11
05
08
00
f4
9b
d8
0b
fa
e4
fd
10
0d
fb
fc
04
0a
04
04
f6
fb
a7
ed
12
f2
ed
ff
07
12
08
f0
fa
fc
04
0c
fe
06
a2
fd
20
f0
fb
fc
f9
07
fe
e8
ea
07
03
06
f7
02
a9
fd
0c
ea
1a
0a
ff
0e
f2
f2
f6
ff
01
05
01
09
ab
0d
10
e3
22
0d
03
0e
00
f2
08
fe
fe
06
f8
ef
c1
0b
16
01
12
fe
09
01
f8
f9
02
ff
fe
ff
fa
d6
c1
fc
fe
05
19
01
18
fe
df
f8
f0
05
fd
0b
ef
db
d6
f5
09
07
0d
01
05
02
e6
f2
fe
06
f7
00
f2
dc
df
f9
fe
01
10
05
0e
fd
fe
08
f4
0c
fd
f5
f5
d7
e8
f5
f8
fd
0d
0b
0f
10
0e
fc
fb
0a
00
05
e8
d1
ee
e5
f2
e6
fd
ff
ff
02
1d
f9
ef
f7
f8
00
ef
ef
f2
f1
f8
e2
06
f6
fc
0d
0f
f5
f1
0c
f5
03
f1
ec
fd
e8
ff
f1
fa
ee
f5
fb
18
05
f6
ee
05
fd
f4
01
f6
ef
08
02
ef
10
04
f5
02
14
f4
e3
07
11
ee
05
f1
ef
f7
00
fb
fb
fb
03
f9
11
fe
ef
02
05
f7
0b
00
ef
fc
0c
f0
0b
0e
f9
04
0c
04
e2
fe
17
ff
06
10
fe
00
f9
f8
f3
1c
08
12
16
09
f6
fb
00
02
13
09
f6
01
fb
02
fa
08
03
06
03
04
0a
00
0c
ff
16
08
01
0a
fb
0f
13
11
0c
09
f9
fe
fa
00
12
f9
ff
0b
0e
06
07
ff
08
0b
fd
fd
12
f4
00
00
11
0a
ff
09
03
f6
06
05
fd
05
07
f5
0e
0b
00
ff
0d
f6
ff
fe
04
fd
f9
06
00
0c
f1
eb
03
0c
ec
fe
f6
fd
f5
df
08
f9
fb
f9
fc
ff
e5
f3
08
17
f5
fe
f2
fd
f9
d3
f1
05
0c
fe
fb
0c
e1
fb
fc
0e
ec
fb
e9
08
fa
e5
e8
07
fe
ea
fb
09
f6
f3
08
05
f6
05
e8
f9
f7
e1
df
fa
f5
e8
f3
04
04
f8
08
ff
04
ff
08
ea
ea
d2
e3
09
0d
e5
04
11
18
fe
11
0d
05
03
03
ee
fa
db
e2
17
0b
d0
fd
12
11
